{
  "version": "1.0",
  "truncation": null,
  "padding": null,
  "added_tokens": [
    {
      "id": 0,
      "content": "[UNK]",
      "single_word": false,
      "lstrip": false,
      "rstrip": false,
      "normalized": false,
      "special": true
    }
  ],
  "normalizer": null,
  "pre_tokenizer": {
    "type": "Whitespace"
  },
  "post_processor": null,
  "decoder": null,
  "model": {
    "type": "BPE",
    "dropout": null,
    "unk_token": null,
    "continuing_subword_prefix": null,
    "end_of_word_suffix": null,
    "fuse_unk": false,
    "byte_fallback": false,
    "vocab": {
      "[UNK]": 0,
      "!": 1,
      "\"": 2,
      "#": 3,
      "$": 4,
      "%": 5,
      "&": 6,
      "'": 7,
      "(": 8,
      ")": 9,
      "*": 10,
      ",": 11,
      "-": 12,
      ".": 13,
      "/": 14,
      "0": 15,
      "1": 16,
      "2": 17,
      "3": 18,
      "4": 19,
      "5": 20,
      "6": 21,
      "7": 22,
      "8": 23,
      "9": 24,
      ":": 25,
      ";": 26,
      "?": 27,
      "A": 28,
      "B": 29,
      "C": 30,
      "D": 31,
      "E": 32,
      "F": 33,
      "G": 34,
      "H": 35,
      "I": 36,
      "J": 37,
      "K": 38,
      "L": 39,
      "M": 40,
      "N": 41,
      "O": 42,
      "P": 43,
      "Q": 44,
      "R": 45,
      "S": 46,
      "T": 47,
      "U": 48,
      "V": 49,
      "W": 50,
      "X": 51,
      "Y": 52,
      "Z": 53,
      "[": 54,
      "]": 55,
      "_": 56,
      "a": 57,
      "b": 58,
      "c": 59,
      "d": 60,
      "e": 61,
      "f": 62,
      "g": 63,
      "h": 64,
      "i": 65,
      "j": 66,
      "k": 67,
      "l": 68,
      "m": 69,
      "n": 70,
      "o": 71,
      "p": 72,
      "q": 73,
      "r": 74,
      "s": 75,
      "t": 76,
      "u": 77,
      "v": 78,
      "w": 79,
      "x": 80,
      "y": 81,
      "z": 82,
      "æ": 83,
      "—": 84,
      "‘": 85,
      "’": 86,
      "﻿": 87,
      "th": 88,
      "er": 89,
      "ou": 90,
      "in": 91,
      "an": 92,
      "the": 93,
      "is": 94,
      "or": 95,
      "ar": 96,
      "en": 97,
      "at": 98,
      "on": 99,
      "ll": 100,
      "me": 101,
      "st": 102,
      "to": 103,
      "and": 104,
      "se": 105,
      "re": 106,
      "he": 107,
      "le": 108,
      "ve": 109,
      "wi": 110,
      "no": 111,
      "of": 112,
      "ing": 113,
      "it": 114,
      "be": 115,
      "ha": 116,
      "you": 117,
      "ut": 118,
      "ch": 119,
      "ro": 120,
      "ay": 121,
      "de": 122,
      "li": 123,
      "ce": 124,
      "nd": 125,
      "ome": 126,
      "for": 127,
      "lo": 128,
      "gh": 129,
      "her": 130,
      "my": 131,
      "with": 132,
      "as": 133,
      "ri": 134,
      "ad": 135,
      "not": 136,
      "es": 137,
      "al": 138,
      "et": 139,
      "that": 140,
      "ld": 141,
      "ght": 142,
      "hat": 143,
      "ed": 144,
      "thou": 145,
      "ent": 146,
      "hi": 147,
      "we": 148,
      "ir": 149,
      "And": 150,
      "ur": 151,
      "ET": 152,
      "ME": 153,
      "ow": 154,
      "UL": 155,
      "this": 156,
      "ther": 157,
      "ag": 158,
      "oo": 159,
      "all": 160,
      "ke": 161,
      "ter": 162,
      "ct": 163,
      "ion": 164,
      "so": 165,
      "un": 166,
      "wor": 167,
      "ly": 168,
      "Th": 169,
      "am": 170,
      "our": 171,
      "here": 172,
      "RO": 173,
      "ain": 174,
      "MEO": 175,
      "ROMEO": 176,
      "do": 177,
      "thy": 178,
      "one": 179,
      "EN": 180,
      "fe": 181,
      "ck": 182,
      "id": 183,
      "ver": 184,
      "Rome": 185,
      "are": 186,
      "art": 187,
      "Romeo": 188,
      "co": 189,
      "ho": 190,
      "love": 191,
      "man": 192,
      "will": 193,
      "ap": 194,
      "ight": 195,
      "thee": 196,
      "but": 197,
      "fa": 198,
      "sha": 199,
      "let": 200,
      "ber": 201,
      "his": 202,
      "ne": 203,
      "aw": 204,
      "ould": 205,
      "IO": 206,
      "SE": 207,
      "sh": 208,
      "up": 209,
      "te": 210,
      "ma": 211,
      "IET": 212,
      "JUL": 213,
      "have": 214,
      "JULIET": 215,
      "sp": 216,
      "ill": 217,
      "by": 218,
      "us": 219,
      "ath": 220,
      "rom": 221,
      "AR": 222,
      "The": 223,
      "ect": 224,
      "ive": 225,
      "LA": 226,
      "What": 227,
      "mor": 228,
      "she": 229,
      "him": 230,
      "your": 231,
      "now": 232,
      "AP": 233,
      "ood": 234,
      "out": 235,
      "ue": 236,
      "CAP": 237,
      "ULET": 238,
      "CAPULET": 239,
      "ant": 240,
      "come": 241,
      "ra": 242,
      "end": 243,
      "shall": 244,
      "from": 245,
      "ss": 246,
      "enber": 247,
      "utenber": 248,
      "utenberg": 249,
      "ic": 250,
      "la": 251,
      "su": 252,
      "UR": 253,
      "ear": 254,
      "NUR": 255,
      "con": 256,
      "day": 257,
      "NURSE": 258,
      "To": 259,
      "mu": 260,
      "Pro": 261,
      "ab": 262,
      "if": 263,
      "ject": 264,
      "mo": 265,
      "ound": 266,
      "Gutenberg": 267,
      "mp": 268,
      "ine": 269,
      "Project": 270,
      "But": 271,
      "can": 272,
      "nter": 273,
      "dis": 274,
      "ks": 275,
      "night": 276,
      "ence": 277,
      "RI": 278,
      "ous": 279,
      "ady": 280,
      "That": 281,
      "od": 282,
      "ea": 283,
      "ere": 284,
      "ate": 285,
      "ul": 286,
      "Ju": 287,
      "ind": 288,
      "CE": 289,
      "ep": 290,
      "go": 291,
      "il": 292,
      "ation": 293,
      "Enter": 294,
      "Cap": 295,
      "alt": 296,
      "mar": 297,
      "po": 298,
      "ta": 299,
      "row": 300,
      "liet": 301,
      "Juliet": 302,
      "UT": 303,
      "ulet": 304,
      "Capulet": 305,
      "Ex": 306,
      "For": 307,
      "ers": 308,
      "any": 309,
      "death": 310,
      "hich": 311,
      "what": 312,
      "ment": 313,
      "pro": 314,
      "qu": 315,
      "tr": 316,
      "good": 317,
      "well": 318,
      "_Ex": 319,
      "wo": 320,
      "ard": 321,
      "sel": 322,
      "ame": 323,
      "MER": 324,
      "there": 325,
      "BEN": 326,
      "LIO": 327,
      "OLIO": 328,
      "VOLIO": 329,
      "ti": 330,
      "MERC": 331,
      "BENVOLIO": 332,
      "Ty": 333,
      "balt": 334,
      "say": 335,
      "UTIO": 336,
      "MERCUTIO": 337,
      "Tybalt": 338,
      "urse": 339,
      "more": 340,
      "FRI": 341,
      "ie": 342,
      "see": 343,
      "FRIAR": 344,
      "may": 345,
      "ven": 346,
      "ong": 347,
      "then": 348,
      "ure": 349,
      "fore": 350,
      "ry": 351,
      "some": 352,
      "sir": 353,
      "tm": 354,
      "use": 355,
      "ENCE": 356,
      "Nurse": 357,
      "RENCE": 358,
      "WRENCE": 359,
      "ith": 360,
      "other": 361,
      "too": 362,
      "LAWRENCE": 363,
      "hen": 364,
      "would": 365,
      "ree": 366,
      "age": 367,
      "pre": 368,
      "was": 369,
      "oun": 370,
      "hath": 371,
      "My": 372,
      "ge": 373,
      "self": 374,
      "ey": 375,
      "men": 376,
      "than": 377,
      "bo": 378,
      "py": 379,
      "dead": 380,
      "DY": 381,
      "hy": 382,
      "ouse": 383,
      "work": 384,
      "time": 385,
      "We": 386,
      "swe": 387,
      "ty": 388,
      "word": 389,
      "LADY": 390,
      "must": 391,
      "No": 392,
      "ON": 393,
      "si": 394,
      "fair": 395,
      "should": 396,
      "AN": 397,
      "ex": 398,
      "know": 399,
      "their": 400,
      "ord": 401,
      "light": 402,
      "own": 403,
      "ast": 404,
      "lady": 405,
      "old": 406,
      "per": 407,
      "they": 408,
      "such": 409,
      "ack": 410,
      "ef": 411,
      "give": 412,
      "ies": 413,
      "Thou": 414,
      "This": 415,
      "Fri": 416,
      "If": 417,
      "part": 418,
      "thing": 419,
      "Mon": 420,
      "ble": 421,
      "mis": 422,
      "vi": 423,
      "ance": 424,
      "them": 425,
      "hea": 426,
      "hast": 427,
      "entle": 428,
      "Friar": 429,
      "St": 430,
      "pr": 431,
      "ort": 432,
      "like": 433,
      "In": 434,
      "loo": 435,
      "unt": 436,
      "tell": 437,
      "Is": 438,
      "It": 439,
      "el": 440,
      "lt": 441,
      "tag": 442,
      "where": 443,
      "ink": 444,
      "ish": 445,
      "low": 446,
      "very": 447,
      "ave": 448,
      "did": 449,
      "hand": 450,
      "lay": 451,
      "tri": 452,
      "who": 453,
      "which": 454,
      "when": 455,
      "yet": 456,
      "ince": 457,
      "ans": 458,
      "these": 459,
      "ise": 460,
      "ars": 461,
      "ite": 462,
      "urn": 463,
      "upon": 464,
      "make": 465,
      "Montag": 466,
      "As": 467,
      "Come": 468,
      "Do": 469,
      "II": 470,
      "ac": 471,
      "gentle": 472,
      "ms": 473,
      "op": 474,
      "vo": 475,
      "new": 476,
      "sweet": 477,
      "Par": 478,
      "TH": 479,
      "ci": 480,
      "der": 481,
      "jo": 482,
      "ess": 483,
      "much": 484,
      "Paris": 485,
      "Be": 486,
      "Pr": 487,
      "You": 488,
      "ity": 489,
      "right": 490,
      "again": 491,
      "AL": 492,
      "fi": 493,
      "lu": 494,
      "heart": 495,
      "bed": 496,
      "doth": 497,
      "copy": 498,
      "able": 499,
      "Where": 500,
      "bre": 501,
      "che": 502,
      "ele": 503,
      "eunt": 504,
      "gone": 505,
      "sc": 506,
      "were": 507,
      "erc": 508,
      "ary": 509,
      "ene": 510,
      "live": 511,
      "_Exeunt": 512,
      "By": 513,
      "God": 514,
      "With": 515,
      "ak": 516,
      "how": 517,
      "atch": 518,
      "comp": 519,
      "take": 520,
      "Montague": 521,
      "How": 522,
      "OR": 523,
      "So": 524,
      "Why": 525,
      "br": 526,
      "back": 527,
      "dr": 528,
      "fu": 529,
      "mb": 530,
      "name": 531,
      "works": 532,
      "_Exit": 533,
      "BAL": 534,
      "Go": 535,
      "IS": 536,
      "Or": 537,
      "Un": 538,
      "Which": 539,
      "ful": 540,
      "house": 541,
      "io": 542,
      "heaven": 543,
      "look": 544,
      "AM": 545,
      "Ay": 546,
      "Of": 547,
      "There": 548,
      "ake": 549,
      "ban": 550,
      "call": 551,
      "law": 552,
      "mber": 553,
      "mine": 554,
      "ron": 555,
      "ught": 556,
      "wr": 557,
      "llow": 558,
      "form": 559,
      "spea": 560,
      "marri": 561,
      "eyes": 562,
      "tribut": 563,
      "elect": 564,
      "ca": 565,
      "ps": 566,
      "ts": 567,
      "tre": 568,
      "ang": 569,
      "str": 570,
      "lie": 571,
      "ook": 572,
      "Then": 573,
      "ronic": 574,
      "electronic": 575,
      "An": 576,
      "IR": 577,
      "SC": 578,
      "di": 579,
      "ving": 580,
      "comes": 581,
      ",—": 582,
      "Sc": 583,
      "af": 584,
      "gra": 585,
      "head": 586,
      "less": 587,
      "dear": 588,
      "AG": 589,
      "He": 590,
      "Law": 591,
      "Merc": 592,
      "RE": 593,
      "ST": 594,
      "dre": 595,
      "gre": 596,
      "hour": 597,
      "long": 598,
      "rence": 599,
      "tis": 600,
      "stand": 601,
      "hear": 602,
      "itt": 603,
      "chi": 604,
      "lood": 605,
      "keep": 606,
      "true": 607,
      "Prince": 608,
      "Lawrence": 609,
      "Now": 610,
      "PAR": 611,
      "blood": 612,
      "est": 613,
      "hence": 614,
      "lain": 615,
      "mad": 616,
      "ough": 617,
      "ins": 618,
      "ense": 619,
      "utio": 620,
      "agree": 621,
      "ENE": 622,
      "father": 623,
      "lace": 624,
      "ears": 625,
      "cannot": 626,
      "distribut": 627,
      "ANT": 628,
      "SCENE": 629,
      "Mercutio": 630,
      "Found": 631,
      "Here": 632,
      "Lady": 633,
      "die": 634,
      "find": 635,
      "lord": 636,
      "ning": 637,
      "ser": 638,
      "ates": 639,
      "stay": 640,
      "wilt": 641,
      "life": 642,
      "fort": 643,
      "made": 644,
      "maid": 645,
      "qui": 646,
      "speak": 647,
      "Scene": 648,
      "PARIS": 649,
      "Foundation": 650,
      "FIR": 651,
      "She": 652,
      "Sha": 653,
      "Who": 654,
      "bid": 655,
      "coun": 656,
      "fo": 657,
      "gri": 658,
      "pe": 659,
      "sa": 660,
      "tal": 661,
      "tain": 662,
      "und": 663,
      "way": 664,
      "ishe": 665,
      "ark": 666,
      "ated": 667,
      "lic": 668,
      "com": 669,
      "away": 670,
      "most": 671,
      "move": 672,
      "mark": 673,
      "FIRST": 674,
      "TY": 675,
      "US": 676,
      "aught": 677,
      "fri": 678,
      "foo": 679,
      "gr": 680,
      "ng": 681,
      "par": 682,
      "think": 683,
      "oud": 684,
      "set": 685,
      "ret": 686,
      "rest": 687,
      "hel": 688,
      "ings": 689,
      "before": 690,
      "had": 691,
      "forth": 692,
      "fear": 693,
      "face": 694,
      "joy": 695,
      "full": 696,
      "ER": 697,
      "PS": 698,
      "SAM": 699,
      "pea": 700,
      "sou": 701,
      "sent": 702,
      "int": 703,
      "ited": 704,
      "beg": 705,
      "young": 706,
      "ded": 707,
      "terms": 708,
      "world": 709,
      "letter": 710,
      "morrow": 711,
      "about": 712,
      "child": 713,
      "ished": 714,
      "friend": 715,
      "PSON": 716,
      "SAMPSON": 717,
      "Ar": 718,
      "Good": 719,
      "RV": 720,
      "cour": 721,
      "den": 722,
      "flow": 723,
      "mer": 724,
      "put": 725,
      "place": 726,
      "run": 727,
      "sse": 728,
      "ust": 729,
      "leep": 730,
      "been": 731,
      "lies": 732,
      "arewell": 733,
      "hold": 734,
      "SERV": 735,
      "tears": 736,
      "lack": 737,
      "earth": 738,
      "both": 739,
      "pray": 740,
      "SERVANT": 741,
      "CT": 742,
      "cous": 743,
      "don": 744,
      "down": 745,
      "daught": 746,
      "ft": 747,
      "fall": 748,
      "ig": 749,
      "ice": 750,
      "kes": 751,
      "kill": 752,
      "son": 753,
      "wife": 754,
      "off": 755,
      "hap": 756,
      "without": 757,
      "ask": 758,
      "ass": 759,
      "urs": 760,
      "urch": 761,
      "Thy": 762,
      "fect": 763,
      "holy": 764,
      "need": 765,
      "usic": 766,
      "ations": 767,
      "eye": 768,
      "Well": 769,
      "copyright": 770,
      "banished": 771,
      "married": 772,
      "grave": 773,
      "dream": 774,
      "cousin": 775,
      "CI": 776,
      "Ver": 777,
      "bri": 778,
      "du": 779,
      "eB": 780,
      "ever": 781,
      "get": 782,
      "kins": 783,
      "om": 784,
      "pa": 785,
      "ple": 786,
      "sound": 787,
      "tra": 788,
      "va": 789,
      "vant": 790,
      "ww": 791,
      "war": 792,
      "ange": 793,
      "ison": 794,
      "ore": 795,
      "ster": 796,
      "faith": 797,
      "ounty": 798,
      "BALT": 799,
      "cause": 800,
      "TYBALT": 801,
      "help": 802,
      "County": 803,
      "Pet": 804,
      "aut": 805,
      "band": 806,
      "mon": 807,
      "ove": 808,
      "play": 809,
      "rap": 810,
      "sun": 811,
      "slain": 812,
      "till": 813,
      "ua": 814,
      "rel": 815,
      "beaut": 816,
      "char": 817,
      "lips": 818,
      "cell": 819,
      "cess": 820,
      "weep": 821,
      "aint": 822,
      "never": 823,
      "show": 824,
      "illain": 825,
      "early": 826,
      "mother": 827,
      "breath": 828,
      "agreement": 829,
      "USI": 830,
      "daughter": 831,
      "Ben": 832,
      "GOR": 833,
      "GRE": 834,
      "Let": 835,
      "Mant": 836,
      "NCE": 837,
      "PRI": 838,
      "Re": 839,
      "UE": 840,
      "When": 841,
      "clo": 842,
      "clu": 843,
      "ell": 844,
      "ither": 845,
      "ose": 846,
      "rough": 847,
      "same": 848,
      "tor": 849,
      "ton": 850,
      "tend": 851,
      "ye": 852,
      "iss": 853,
      "arry": 854,
      "read": 855,
      "ition": 856,
      "bear": 857,
      "desp": 858,
      "Not": 859,
      "Shall": 860,
      "soul": 861,
      "GORY": 862,
      "GREGORY": 863,
      "Mantua": 864,
      "PRINCE": 865,
      "CH": 866,
      "Give": 867,
      "Some": 868,
      "Tis": 869,
      "could": 870,
      "ding": 871,
      "im": 872,
      "mur": 873,
      "pt": 874,
      "pri": 875,
      "port": 876,
      "tw": 877,
      "two": 878,
      "ud": 879,
      "um": 880,
      "villain": 881,
      "ward": 882,
      "those": 883,
      "orn": 884,
      "ona": 885,
      "ste": 886,
      "reet": 887,
      "led": 888,
      "bet": 889,
      "church": 890,
      "lio": 891,
      "alone": 892,
      "vers": 893,
      "app": 894,
      "They": 895,
      "quar": 896,
      "ONT": 897,
      "haste": 898,
      "States": 899,
      "gentleman": 900,
      "volio": 901,
      "news": 902,
      "THA": 903,
      "draw": 904,
      "United": 905,
      "follow": 906,
      "talk": 907,
      "peace": 908,
      "Verona": 909,
      "Peter": 910,
      "Benvolio": 911,
      "Ah": 912,
      "Mad": 913,
      "MUSI": 914,
      "MONT": 915,
      "Nay": 916,
      "PET": 917,
      "Will": 918,
      "Your": 919,
      "ach": 920,
      "cl": 921,
      "fir": 922,
      "hus": 923,
      "ile": 924,
      "late": 925,
      "music": 926,
      "none": 927,
      "ran": 928,
      "rant": 929,
      "sin": 930,
      "send": 931,
      "ument": 932,
      "leave": 933,
      "wit": 934,
      "nothing": 935,
      "iter": 936,
      "best": 937,
      "hamber": 938,
      "myself": 939,
      "within": 940,
      "asure": 941,
      "hile": 942,
      "hither": 943,
      "soon": 944,
      "Thurs": 945,
      "ament": 946,
      "many": 947,
      "Being": 948,
      "lives": 949,
      "AGUE": 950,
      "grief": 951,
      "under": 952,
      "happy": 953,
      "CIAN": 954,
      "tonight": 955,
      "MUSICIAN": 956,
      "MONTAGUE": 957,
      "PETER": 958,
      "husband": 959,
      "Thursday": 960,
      "All": 961,
      "Her": 962,
      "Hold": 963,
      "Liter": 964,
      "Ser": 965,
      "SAR": 966,
      "ase": 967,
      "air": 968,
      "bro": 969,
      "bound": 970,
      "cre": 971,
      "cord": 972,
      "ger": 973,
      "gro": 974,
      "litt": 975,
      "min": 976,
      "nor": 977,
      "pu": 978,
      "pur": 979,
      "sm": 980,
      "sion": 981,
      "sword": 982,
      "sleep": 983,
      "vy": 984,
      "wer": 985,
      "wall": 986,
      "watch": 987,
      "years": 988,
      "thine": 989,
      "inclu": 990,
      "another": 991,
      "orrow": 992,
      "ench": 993,
      "ats": 994,
      "still": 995,
      "tomorrow": 996,
      "oft": 997,
      "chive": 998,
      "demark": 999,
      "hate": 1000,
      "agrap": 1001,
      "une": 1002,
      "dost": 1003,
      "master": 1004,
      "days": 1005,
      "ult": 1006,
      "poor": 1007,
      "woe": 1008,
      "ardon": 1009,
      "hands": 1010,
      "THE": 1011,
      "BALTHA": 1012,
      "said": 1013,
      "paragrap": 1014,
      "Archive": 1015,
      "kinsman": 1016,
      "trademark": 1017,
      "murder": 1018,
      "Madam": 1019,
      "Literary": 1020,
      "little": 1021,
      "BALTHASAR": 1022,
      "paragraph": 1023,
      ".—": 1024,
      "ACT": 1025,
      "Farewell": 1026,
      "House": 1027,
      "IV": 1028,
      "LI": 1029,
      "Marry": 1030,
      "Ro": 1031,
      "bod": 1032,
      "emp": 1033,
      "free": 1034,
      "hon": 1035,
      "nat": 1036,
      "ness": 1037,
      "pl": 1038,
      "pen": 1039,
      "ru": 1040,
      "sal": 1041,
      "sil": 1042,
      "tong": 1043,
      "turn": 1044,
      "vis": 1045,
      "wind": 1046,
      "xt": 1047,
      "means": 1048,
      "state": 1049,
      "ses": 1050,
      "red": 1051,
      "rece": 1052,
      "lear": 1053,
      "its": 1054,
      "being": 1055,
      "alth": 1056,
      "oom": 1057,
      "oose": 1058,
      "makes": 1059,
      "ection": 1060,
      "conf": 1061,
      "poison": 1062,
      "boy": 1063,
      "side": 1064,
      "eful": 1065,
      "Doth": 1066,
      "III": 1067,
      "access": 1068,
      "chee": 1069,
      "Therefore": 1070,
      "writ": 1071,
      "comfort": 1072,
      "flower": 1073,
      "donations": 1074,
      "warrant": 1075,
      "better": 1076,
      "Servant": 1077,
      "honour": 1078,
      "!—": 1079,
      "CON": 1080,
      "OF": 1081,
      "One": 1082,
      "even": 1083,
      "every": 1084,
      "fle": 1085,
      "kind": 1086,
      "ls": 1087,
      "ling": 1088,
      "lad": 1089,
      "pi": 1090,
      "pay": 1091,
      "pass": 1092,
      "pardon": 1093,
      "ring": 1094,
      "sup": 1095,
      "wed": 1096,
      "wise": 1097,
      "yon": 1098,
      "org": 1099,
      "arm": 1100,
      "atter": 1101,
      "once": 1102,
      "only": 1103,
      "med": 1104,
      "ves": 1105,
      "deed": 1106,
      "rich": 1107,
      "thought": 1108,
      "enty": 1109,
      "worn": 1110,
      "Than": 1111,
      "shame": 1112,
      "morning": 1113,
      "last": 1114,
      "ments": 1115,
      "prote": 1116,
      "provi": 1117,
      "tru": 1118,
      "therefore": 1119,
      "mission": 1120,
      "whose": 1121,
      "bring": 1122,
      "marriage": 1123,
      "tress": 1124,
      "great": 1125,
      "foot": 1126,
      "ssed": 1127,
      "eBook": 1128,
      "beauty": 1129,
      "twenty": 1130,
      "quarrel": 1131,
      "body": 1132,
      "tongue": 1133,
      "AT": 1134,
      "At": 1135,
      "Dr": 1136,
      "Hath": 1137,
      "Have": 1138,
      "Lic": 1139,
      "Nor": 1140,
      "On": 1141,
      "Se": 1142,
      "bu": 1143,
      "black": 1144,
      "cor": 1145,
      "done": 1146,
      "far": 1147,
      "found": 1148,
      "hone": 1149,
      "iv": 1150,
      "ious": 1151,
      "kn": 1152,
      "kiss": 1153,
      "ol": 1154,
      "ost": 1155,
      "over": 1156,
      "prom": 1157,
      "sad": 1158,
      "saw": 1159,
      "sorrow": 1160,
      "ues": 1161,
      "yard": 1162,
      "erate": 1163,
      "ought": 1164,
      "ones": 1165,
      "meet": 1166,
      "stir": 1167,
      "stra": 1168,
      "ready": 1169,
      "les": 1170,
      "besee": 1171,
      "ason": 1172,
      "adv": 1173,
      "hip": 1174,
      "hide": 1175,
      "high": 1176,
      "ooks": 1177,
      "ions": 1178,
      "soci": 1179,
      "fee": 1180,
      "cover": 1181,
      "shalt": 1182,
      "SECON": 1183,
      "temp": 1184,
      "himself": 1185,
      "uest": 1186,
      "sub": 1187,
      "marry": 1188,
      "rows": 1189,
      "says": 1190,
      "others": 1191,
      "swear": 1192,
      "sick": 1193,
      "heavy": 1194,
      "else": 1195,
      "against": 1196,
      "calls": 1197,
      "laws": 1198,
      "madam": 1199,
      "ground": 1200,
      "bride": 1201,
      "pale": 1202,
      "desperate": 1203,
      "first": 1204,
      "Rosal": 1205,
      "silver": 1206,
      "License": 1207,
      "straight": 1208,
      "SECOND": 1209,
      "Rosaline": 1210,
      "AB": 1211,
      "IN": 1212,
      "Po": 1213,
      "Take": 1214,
      "Up": 1215,
      "bs": 1216,
      "bir": 1217,
      "cle": 1218,
      "came": 1219,
      "dam": 1220,
      "ff": 1221,
      "fight": 1222,
      "gutenberg": 1223,
      "hor": 1224,
      "iz": 1225,
      "ire": 1226,
      "imp": 1227,
      "ians": 1228,
      "mn": 1229,
      "ming": 1230,
      "mind": 1231,
      "ob": 1232,
      "oth": 1233,
      "pow": 1234,
      "pers": 1235,
      "ting": 1236,
      "wak": 1237,
      "through": 1238,
      "inks": 1239,
      "iness": 1240,
      "anci": 1241,
      "ory": 1242,
      "ati": 1243,
      "ating": 1244,
      "mean": 1245,
      "member": 1246,
      "medi": 1247,
      "nock": 1248,
      "noble": 1249,
      "youth": 1250,
      "change": 1251,
      "cept": 1252,
      "forget": 1253,
      "though": 1254,
      "ents": 1255,
      "enter": 1256,
      "ury": 1257,
      "ains": 1258,
      "fellow": 1259,
      "hot": 1260,
      "spe": 1261,
      "above": 1262,
      "gold": 1263,
      "rown": 1264,
      "woman": 1265,
      "thank": 1266,
      "times": 1267,
      "mistress": 1268,
      "Stay": 1269,
      "open": 1270,
      "join": 1271,
      "fire": 1272,
      "Within": 1273,
      "comply": 1274,
      "banish": 1275,
      "case": 1276,
      "after": 1277,
      "hours": 1278,
      "serve": 1279,
      "fool": 1280,
      "ouds": 1281,
      "return": 1282,
      "ign": 1283,
      "vault": 1284,
      "www": 1285,
      "monument": 1286,
      "charge": 1287,
      "torch": 1288,
      "cords": 1289,
      "learn": 1290,
      "**": 1291,
      "Con": 1292,
      "Cell": 1293,
      "De": 1294,
      "Gard": 1295,
      "His": 1296,
      "Hence": 1297,
      "Look": 1298,
      "More": 1299,
      "Section": 1300,
      "WAT": 1301,
      "Yet": 1302,
      "act": 1303,
      "bit": 1304,
      "bite": 1305,
      "burn": 1306,
      "book": 1307,
      "blic": 1308,
      "bones": 1309,
      "cou": 1310,
      "cri": 1311,
      "cur": 1312,
      "chamber": 1313,
      "dark": 1314,
      "fing": 1315,
      "four": 1316,
      "farewell": 1317,
      "gall": 1318,
      "goose": 1319,
      "hit": 1320,
      "hur": 1321,
      "hood": 1322,
      "ier": 1323,
      "ial": 1324,
      "ife": 1325,
      "lcome": 1326,
      "lament": 1327,
      "main": 1328,
      "might": 1329,
      "pare": 1330,
      "past": 1331,
      "ray": 1332,
      "sing": 1333,
      "sight": 1334,
      "sla": 1335,
      "sort": 1336,
      "tion": 1337,
      "umb": 1338,
      "vil": 1339,
      "wa": 1340,
      "want": 1341,
      "wast": 1342,
      "eral": 1343,
      "into": 1344,
      "ister": 1345,
      "arch": 1346,
      "ens": 1347,
      "atis": 1348,
      "tomb": 1349,
      "sea": 1350,
      "secon": 1351,
      "rew": 1352,
      "refu": 1353,
      "reason": 1354,
      "because": 1355,
      "loc": 1356,
      "associ": 1357,
      "etch": 1358,
      "som": 1359,
      "feast": 1360,
      "feel": 1361,
      "cop": 1362,
      "near": 1363,
      "shri": 1364,
      "short": 1365,
      "spo": 1366,
      "mortal": 1367,
      "post": 1368,
      "pose": 1369,
      "Capulets": 1370,
      "try": 1371,
      "woes": 1372,
      "pret": 1373,
      "bosom": 1374,
      "Street": 1375,
      "answer": 1376,
      "writt": 1377,
      "formation": 1378,
      "anger": 1379,
      "AGE": 1380,
      "distributing": 1381,
      "counsel": 1382,
      "moved": 1383,
      "merry": 1384,
      "churchyard": 1385,
      "clouds": 1386,
      "public": 1387,
      "including": 1388,
      "confess": 1389,
      "protect": 1390,
      "See": 1391,
      "person": 1392,
      "ancient": 1393,
      "Garden": 1394,
      "WATCH": 1395,
      "second": 1396,
      "refund": 1397,
      "written": 1398,
      "Al": 1399,
      "Alack": 1400,
      "Call": 1401,
      "Did": 1402,
      "Lord": 1403,
      "May": 1404,
      "OU": 1405,
      "Out": 1406,
      "PRO": 1407,
      "Page": 1408,
      "Ret": 1409,
      "Su": 1410,
      "Too": 1411,
      "Till": 1412,
      "Turn": 1413,
      "Was": 1414,
      "bl": 1415,
      "bt": 1416,
      "bow": 1417,
      "bus": 1418,
      "cr": 1419,
      "cut": 1420,
      "care": 1421,
      "cure": 1422,
      "cry": 1423,
      "dri": 1424,
      "dag": 1425,
      "dden": 1426,
      "either": 1427,
      "gs": 1428,
      "gir": 1429,
      "home": 1430,
      "ied": 1431,
      "jest": 1432,
      "ken": 1433,
      "king": 1434,
      "mend": 1435,
      "pal": 1436,
      "pati": 1437,
      "sand": 1438,
      "sit": 1439,
      "since": 1440,
      "sworn": 1441,
      "satis": 1442,
      "ull": 1443,
      "why": 1444,
      "wish": 1445,
      "wret": 1446,
      "while": 1447,
      "ery": 1448,
      "inter": 1449,
      "indeed": 1450,
      "ist": 1451,
      "aring": 1452,
      "eng": 1453,
      "enough": 1454,
      "met": 1455,
      "measure": 1456,
      "stri": 1457,
      "stant": 1458,
      "stars": 1459,
      "seen": 1460,
      "reg": 1461,
      "remember": 1462,
      "wits": 1463,
      "behold": 1464,
      "des": 1465,
      "dest": 1466,
      "lim": 1467,
      "loving": 1468,
      "lovers": 1469,
      "add": 1470,
      "thousand": 1471,
      "sole": 1472,
      "unto": 1473,
      "unte": 1474,
      "thyself": 1475,
      "cks": 1476,
      "coll": 1477,
      "cost": 1478,
      "cold": 1479,
      "next": 1480,
      "teen": 1481,
      "ived": 1482,
      "ends": 1483,
      "sudden": 1484,
      "canst": 1485,
      "pos": 1486,
      "tax": 1487,
      "woeful": 1488,
      "press": 1489,
      "present": 1490,
      "words": 1491,
      "simp": 1492,
      "exc": 1493,
      "gives": 1494,
      "things": 1495,
      "vile": 1496,
      "vious": 1497,
      "looks": 1498,
      "acc": 1499,
      "gentlemen": 1500,
      "fied": 1501,
      "bloody": 1502,
      "distribution": 1503,
      "fortune": 1504,
      "maids": 1505,
      "quire": 1506,
      "quick": 1507,
      "license": 1508,
      "fearful": 1509,
      "eBooks": 1510,
      "shows": 1511,
      "close": 1512,
      "tender": 1513,
      "flesh": 1514,
      "provide": 1515,
      "Draw": 1516,
      "corse": 1517,
      "honest": 1518,
      "beseech": 1519,
      "counter": 1520,
      "located": 1521,
      "associated": 1522,
      "copies": 1523,
      "dagger": 1524,
      "Balth": 1525,
      "Can": 1526,
      "Chamber": 1527,
      "ECT": 1528,
      "From": 1529,
      "Hall": 1530,
      "Hie": 1531,
      "Li": 1532,
      "Love": 1533,
      "Me": 1534,
      "RAM": 1535,
      "Room": 1536,
      "Sh": 1537,
      "Swe": 1538,
      "Sir": 1539,
      "Spea": 1540,
      "Wil": 1541,
      "Watch": 1542,
      "YOU": 1543,
      "_K": 1544,
      "athe": 1545,
      "ale": 1546,
      "bla": 1547,
      "bright": 1548,
      "cc": 1549,
      "cer": 1550,
      "cal": 1551,
      "cla": 1552,
      "cary": 1553,
      "dou": 1554,
      "dar": 1555,
      "date": 1556,
      "doom": 1557,
      "fl": 1558,
      "fie": 1559,
      "fetch": 1560,
      "gn": 1561,
      "gu": 1562,
      "hang": 1563,
      "ide": 1564,
      "ily": 1565,
      "ick": 1566,
      "lf": 1567,
      "lark": 1568,
      "lunte": 1569,
      "merc": 1570,
      "match": 1571,
      "matter": 1572,
      "nu": 1573,
      "nay": 1574,
      "ners": 1575,
      "ph": 1576,
      "pil": 1577,
      "phy": 1578,
      "rage": 1579,
      "sle": 1580,
      "slow": 1581,
      "slay": 1582,
      "ship": 1583,
      "tune": 1584,
      "ual": 1585,
      "vir": 1586,
      "vow": 1587,
      "wal": 1588,
      "woo": 1589,
      "yalt": 1590,
      "thr": 1591,
      "three": 1592,
      "thumb": 1593,
      "ering": 1594,
      "thecary": 1595,
      "arri": 1596,
      "envious": 1597,
      "stain": 1598,
      "street": 1599,
      "sell": 1600,
      "search": 1601,
      "hes": 1602,
      "wild": 1603,
      "noise": 1604,
      "itself": 1605,
      "ities": 1606,
      "itiz": 1607,
      "beat": 1608,
      "having": 1609,
      "half": 1610,
      "ute": 1611,
      "chance": 1612,
      "deep": 1613,
      "ghs": 1614,
      "herself": 1615,
      "withal": 1616,
      "asar": 1617,
      "already": 1618,
      "agg": 1619,
      "amb": 1620,
      "dog": 1621,
      "door": 1622,
      "hop": 1623,
      "hoar": 1624,
      "spect": 1625,
      "using": 1626,
      "These": 1627,
      "ants": 1628,
      "rah": 1629,
      "sum": 1630,
      "conj": 1631,
      "consent": 1632,
      "iff": 1633,
      "display": 1634,
      "got": 1635,
      "tale": 1636,
      "prove": 1637,
      "took": 1638,
      "prepare": 1639,
      "wash": 1640,
      "exile": 1641,
      "perform": 1642,
      "permission": 1643,
      "Montagues": 1644,
      "voice": 1645,
      "volunte": 1646,
      "cious": 1647,
      "breast": 1648,
      "ched": 1649,
      "enemy": 1650,
      "compli": 1651,
      "company": 1652,
      "speaks": 1653,
      "streng": 1654,
      "grace": 1655,
      "heads": 1656,
      "distribute": 1657,
      "servant": 1658,
      "maiden": 1659,
      "count": 1660,
      "foe": 1661,
      "taining": 1662,
      "begin": 1663,
      "flowers": 1664,
      "paid": 1665,
      "pleasure": 1666,
      "udge": 1667,
      "brother": 1668,
      "nature": 1669,
      "window": 1670,
      "cheek": 1671,
      "cheeks": 1672,
      "Servants": 1673,
      "honourable": 1674,
      "yonder": 1675,
      "temper": 1676,
      "ABRAM": 1677,
      "power": 1678,
      "banishment": 1679,
      "bitter": 1680,
      "fourteen": 1681,
      "hurt": 1682,
      "spoke": 1683,
      "protected": 1684,
      "girl": 1685,
      "satisfied": 1686,
      "excuse": 1687,
      "Balthasar": 1688,
      "Wilt": 1689,
      "number": 1690,
      "slew": 1691,
      "itizens": 1692,
      "strength": 1693,
      ",’": 1694,
      "Ad": 1695,
      "Am": 1696,
      "Ch": 1697,
      "Could": 1698,
      "Cup": 1699,
      "ED": 1700,
      "Ere": 1701,
      "Fa": 1702,
      "Get": 1703,
      "Gentle": 1704,
      "HN": 1705,
      "Ha": 1706,
      "Hel": 1707,
      "IT": 1708,
      "JO": 1709,
      "Jo": 1710,
      "Mis": 1711,
      "Music": 1712,
      "Most": 1713,
      "NO": 1714,
      "Our": 1715,
      "Saint": 1716,
      "TI": 1717,
      "Two": 1718,
      "Tell": 1719,
      "Youn": 1720,
      "_They": 1721,
      "_Within": 1722,
      "az": 1723,
      "ade": 1724,
      "ace": 1725,
      "brow": 1726,
      "blow": 1727,
      "blu": 1728,
      "cha": 1729,
      "cro": 1730,
      "cra": 1731,
      "crow": 1732,
      "carri": 1733,
      "dow": 1734,
      "dare": 1735,
      "dance": 1736,
      "five": 1737,
      "fray": 1738,
      "guest": 1739,
      "hn": 1740,
      "hare": 1741,
      "je": 1742,
      "ker": 1743,
      "knock": 1744,
      "line": 1745,
      "mask": 1746,
      "ner": 1747,
      "nes": 1748,
      "nine": 1749,
      "occ": 1750,
      "pap": 1751,
      "pite": 1752,
      "ren": 1753,
      "swi": 1754,
      "sense": 1755,
      "tree": 1756,
      "vie": 1757,
      "wh": 1758,
      "wn": 1759,
      "won": 1760,
      "wake": 1761,
      "wings": 1762,
      "wench": 1763,
      "thus": 1764,
      "oul": 1765,
      "anc": 1766,
      "ended": 1767,
      "eneral": 1768,
      "attend": 1769,
      "ond": 1770,
      "lling": 1771,
      "stat": 1772,
      "stance": 1773,
      "stop": 1774,
      "toward": 1775,
      "town": 1776,
      "sever": 1777,
      "rep": 1778,
      "remove": 1779,
      "require": 1780,
      "hell": 1781,
      "heir": 1782,
      "lead": 1783,
      "hair": 1784,
      "cho": 1785,
      "dev": 1786,
      "dew": 1787,
      "delight": 1788,
      "desc": 1789,
      "defect": 1790,
      "limb": 1791,
      "living": 1792,
      "ces": 1793,
      "cease": 1794,
      "force": 1795,
      "lov": 1796,
      "ghost": 1797,
      "asleep": 1798,
      "almost": 1799,
      "eds": 1800,
      "edition": 1801,
      "ently": 1802,
      "wear": 1803,
      "weak": 1804,
      "ally": 1805,
      "untime": 1806,
      "Thus": 1807,
      "fees": 1808,
      "idd": 1809,
      "hope": 1810,
      "shape": 1811,
      "awhile": 1812,
      "tear": 1813,
      "test": 1814,
      "spir": 1815,
      "yourself": 1816,
      "rase": 1817,
      "laid": 1818,
      "sure": 1819,
      "cont": 1820,
      "ify": 1821,
      "iful": 1822,
      "moon": 1823,
      "ounds": 1824,
      "ease": 1825,
      "ular": 1826,
      "point": 1827,
      "posse": 1828,
      "anyone": 1829,
      "anything": 1830,
      "quoth": 1831,
      "trust": 1832,
      "sighs": 1833,
      "exp": 1834,
      "known": 1835,
      "blessed": 1836,
      "viol": 1837,
      "Stand": 1838,
      "Information": 1839,
      "didst": 1840,
      "whom": 1841,
      "civil": 1842,
      "luck": 1843,
      "break": 1844,
      "scorn": 1845,
      "aking": 1846,
      "braw": 1847,
      "Unless": 1848,
      "houses": 1849,
      "trem": 1850,
      "strange": 1851,
      "Anon": 1852,
      "affect": 1853,
      "longer": 1854,
      "chide": 1855,
      "country": 1856,
      "hadst": 1857,
      "joyful": 1858,
      "begg": 1859,
      "letters": 1860,
      "course": 1861,
      "ustom": 1862,
      "holder": 1863,
      "donate": 1864,
      "dreams": 1865,
      "brief": 1866,
      "following": 1867,
      "musicians": 1868,
      "small": 1869,
      "smile": 1870,
      "swords": 1871,
      "plag": 1872,
      "rude": 1873,
      "received": 1874,
      "ladies": 1875,
      "wedding": 1876,
      "buri": 1877,
      "knave": 1878,
      "advent": 1879,
      "Poor": 1880,
      "Upon": 1881,
      "bird": 1882,
      "damn": 1883,
      "medium": 1884,
      "speed": 1885,
      "Death": 1886,
      "fingers": 1887,
      "lamentable": 1888,
      "slaught": 1889,
      "shrift": 1890,
      "pretty": 1891,
      "Alas": 1892,
      "Such": 1893,
      "blind": 1894,
      "simple": 1895,
      "quickly": 1896,
      "Like": 1897,
      "Sweet": 1898,
      "Speak": 1899,
      "phrase": 1900,
      "pilgri": 1901,
      "volunteers": 1902,
      "Cupid": 1903,
      "JOHN": 1904,
      "John": 1905,
      "paper": 1906,
      "untimely": 1907,
      "),": 1908,
      ".’": 1909,
      "00": 1910,
      "?’": 1911,
      "Away": 1912,
      "BER": 1913,
      "Both": 1914,
      "CAR": 1915,
      "Came": 1916,
      "Com": 1917,
      "Citizens": 1918,
      "Des": 1919,
      "ES": 1920,
      "Either": 1921,
      "FOR": 1922,
      "Fran": 1923,
      "GUT": 1924,
      "Ho": 1925,
      "Had": 1926,
      "Hast": 1927,
      "JECT": 1928,
      "Make": 1929,
      "Ne": 1930,
      "OTHE": 1931,
      "Pea": 1932,
      "PAGE": 1933,
      "RANT": 1934,
      "Since": 1935,
      "Sign": 1936,
      "Tut": 1937,
      "Would": 1938,
      "WAR": 1939,
      "Were": 1940,
      "Yea": 1941,
      "_Ret": 1942,
      "au": 1943,
      "bad": 1944,
      "bur": 1945,
      "bare": 1946,
      "baw": 1947,
      "bra": 1948,
      "big": 1949,
      "bury": 1950,
      "cis": 1951,
      "cir": 1952,
      "cam": 1953,
      "cup": 1954,
      "curse": 1955,
      "city": 1956,
      "cret": 1957,
      "din": 1958,
      "dwell": 1959,
      "dry": 1960,
      "dies": 1961,
      "ek": 1962,
      "eld": 1963,
      "fat": 1964,
      "fal": 1965,
      "fur": 1966,
      "fly": 1967,
      "fain": 1968,
      "fine": 1969,
      "faint": 1970,
      "fought": 1971,
      "foul": 1972,
      "gi": 1973,
      "ging": 1974,
      "gain": 1975,
      "gave": 1976,
      "glad": 1977,
      "hard": 1978,
      "hund": 1979,
      "ior": 1980,
      "ime": 1981,
      "igh": 1982,
      "lent": 1983,
      "lamb": 1984,
      "mat": 1985,
      "mas": 1986,
      "mone": 1987,
      "mouse": 1988,
      "non": 1989,
      "pan": 1990,
      "ping": 1991,
      "pain": 1992,
      "pra": 1993,
      "pul": 1994,
      "pie": 1995,
      "quest": 1996,
      "sl": 1997,
      "sw": 1998,
      "sme": 1999,
      "sour": 2000,
      "sid": 2001,
      "save": 2002,
      "sake": 2003,
      "saint": 2004,
      "soft": 2005,
      "tou": 2006,
      "tle": 2007,
      "ted": 2008,
      "tort": 2009,
      "uc": 2010,
      "ugh": 2011,
      "vent": 2012,
      "vain": 2013,
      "vid": 2014,
      "vance": 2015,
      "wis": 2016,
      "’.": 2017,
      "thin": 2018,
      "thither": 2019,
      "erable": 2020,
      "inf": 2021,
      "ised": 2022,
      "isses": 2023,
      "ative": 2024,
      "ature": 2025,
      "online": 2026,
      "lls": 2027,
      "llen": 2028,
      "meth": 2029,
      "stor": 2030,
      "star": 2031,
      "start": 2032,
      "states": 2033,
      "strew": 2034,
      "secret": 2035,
      "reat": 2036,
      "rever": 2037,
      "replace": 2038,
      "remed": 2039,
      "remain": 2040,
      "respect": 2041,
      "heel": 2042,
      "leg": 2043,
      "left": 2044,
      "veins": 2045,
      "noon": 2046,
      "itation": 2047,
      "beast": 2048,
      "below": 2049,
      "uts": 2050,
      "cher": 2051,
      "chang": 2052,
      "choose": 2053,
      "rose": 2054,
      "royalt": 2055,
      "dece": 2056,
      "depart": 2057,
      "ced": 2058,
      "ford": 2059,
      "forsworn": 2060,
      "lod": 2061,
      "log": 2062,
      "loss": 2063,
      "hers": 2064,
      "ash": 2065,
      "ries": 2066,
      "ado": 2067,
      "note": 2068,
      "alous": 2069,
      "along": 2070,
      "alack": 2071,
      "hateful": 2072,
      "wel": 2073,
      "west": 2074,
      "weap": 2075,
      "weary": 2076,
      "webs": 2077,
      "welcome": 2078,
      "iron": 2079,
      "ages": 2080,
      "allow": 2081,
      "kest": 2082,
      "ction": 2083,
      "sol": 2084,
      "sold": 2085,
      "solic": 2086,
      "unk": 2087,
      "unless": 2088,
      "uncle": 2089,
      "worm": 2090,
      "among": 2091,
      "dom": 2092,
      "dove": 2093,
      "ENBER": 2094,
      "feit": 2095,
      "ckle": 2096,
      "idual": 2097,
      "vern": 2098,
      "coz": 2099,
      "cock": 2100,
      "appro": 2101,
      "fault": 2102,
      "shr": 2103,
      "shar": 2104,
      "spite": 2105,
      "APOTHE": 2106,
      "ssing": 2107,
      "icial": 2108,
      "contr": 2109,
      "condu": 2110,
      "consort": 2111,
      "constant": 2112,
      "daylight": 2113,
      "abro": 2114,
      "ified": 2115,
      "dist": 2116,
      "discover": 2117,
      "discla": 2118,
      "odd": 2119,
      "east": 2120,
      "ately": 2121,
      "indiv": 2122,
      "goss": 2123,
      "ility": 2124,
      "pothecary": 2125,
      "tact": 2126,
      "Fortune": 2127,
      "proof": 2128,
      "provid": 2129,
      "womb": 2130,
      "seek": 2131,
      "seeming": 2132,
      "venge": 2133,
      "something": 2134,
      "precious": 2135,
      "prevent": 2136,
      "bold": 2137,
      "Welcome": 2138,
      "sire": 2139,
      "sign": 2140,
      "AND": 2141,
      "ANY": 2142,
      "lightning": 2143,
      "parts": 2144,
      "prof": 2145,
      "proud": 2146,
      "wherefore": 2147,
      "accept": 2148,
      "gentlewoman": 2149,
      "ople": 2150,
      "oppress": 2151,
      "copying": 2152,
      "cheer": 2153,
      "check": 2154,
      "scar": 2155,
      "akes": 2156,
      "comput": 2157,
      "ORUS": 2158,
      "drink": 2159,
      "names": 2160,
      "wrong": 2161,
      "format": 2162,
      "angu": 2163,
      "strong": 2164,
      "lieve": 2165,
      "div": 2166,
      "dire": 2167,
      "afford": 2168,
      "Heart": 2169,
      "grey": 2170,
      "green": 2171,
      "keeps": 2172,
      "distributed": 2173,
      "quiet": 2174,
      "Shakes": 2175,
      "Whose": 2176,
      "peare": 2177,
      "people": 2178,
      "sail": 2179,
      "ways": 2180,
      "coming": 2181,
      "sought": 2182,
      "sentence": 2183,
      "inted": 2184,
      "intents": 2185,
      "friends": 2186,
      "Art": 2187,
      "court": 2188,
      "sses": 2189,
      "fection": 2190,
      "needs": 2191,
      "kinsmen": 2192,
      "please": 2193,
      "vali": 2194,
      "warm": 2195,
      "weeps": 2196,
      "tendants": 2197,
      "CHORUS": 2198,
      "umour": 2199,
      "ornament": 2200,
      "steel": 2201,
      "appear": 2202,
      "broad": 2203,
      "groom": 2204,
      "minute": 2205,
      "purpose": 2206,
      "empty": 2207,
      "freely": 2208,
      "recei": 2209,
      "writing": 2210,
      "support": 2211,
      "wisely": 2212,
      "yond": 2213,
      "provided": 2214,
      "truth": 2215,
      "Attendants": 2216,
      "knife": 2217,
      "promo": 2218,
      "sadness": 2219,
      "bridegroom": 2220,
      "birth": 2221,
      "ires": 2222,
      "import": 2223,
      "waking": 2224,
      "nocking": 2225,
      "golden": 2226,
      "***": 2227,
      "wanton": 2228,
      "posted": 2229,
      "PROJECT": 2230,
      "business": 2231,
      "palm": 2232,
      "patience": 2233,
      "wretched": 2234,
      "addition": 2235,
      "solemn": 2236,
      "collection": 2237,
      "position": 2238,
      "accustom": 2239,
      "_Knocking": 2240,
      "doubt": 2241,
      "dares": 2242,
      "mercy": 2243,
      "virt": 2244,
      "walk": 2245,
      "thrust": 2246,
      "streets": 2247,
      "conjure": 2248,
      "displaying": 2249,
      "performing": 2250,
      "compliance": 2251,
      "Church": 2252,
      "Faith": 2253,
      "Musicians": 2254,
      "Young": 2255,
      "blush": 2256,
      "jealous": 2257,
      "piteous": 2258,
      "swift": 2259,
      "view": 2260,
      "status": 2261,
      "requirements": 2262,
      "ghostly": 2263,
      "editions": 2264,
      "spirit": 2265,
      "possess": 2266,
      "buried": 2267,
      "adventure": 2268,
      "damned": 2269,
      "slaughter": 2270,
      "CARY": 2271,
      "Francis": 2272,
      "GUTENBER": 2273,
      "Peace": 2274,
      "Signior": 2275,
      "WARRANT": 2276,
      "bawd": 2277,
      "fatal": 2278,
      "further": 2279,
      "hundred": 2280,
      "money": 2281,
      "touch": 2282,
      "torture": 2283,
      "wisdom": 2284,
      "weapon": 2285,
      "website": 2286,
      "approach": 2287,
      "APOTHECARY": 2288,
      "individual": 2289,
      "providing": 2290,
      "Shakespeare": 2291,
      "GUTENBERG": 2292,
      "!’": 2293,
      "15": 2294,
      "Are": 2295,
      "Aside": 2296,
      "Apothecary": 2297,
      "Bl": 2298,
      "Bea": 2299,
      "BUT": 2300,
      "CO": 2301,
      "Co": 2302,
      "Di": 2303,
      "DIS": 2304,
      "DAM": 2305,
      "El": 2306,
      "Even": 2307,
      "Find": 2308,
      "Fie": 2309,
      "Full": 2310,
      "Gall": 2311,
      "Greg": 2312,
      "General": 2313,
      "Hang": 2314,
      "Hark": 2315,
      "ILI": 2316,
      "IES": 2317,
      "Jes": 2318,
      "Jack": 2319,
      "Lam": 2320,
      "Mab": 2321,
      "Many": 2322,
      "Mask": 2323,
      "MIT": 2324,
      "ND": 2325,
      "Night": 2326,
      "PG": 2327,
      "Put": 2328,
      "Part": 2329,
      "Play": 2330,
      "Right": 2331,
      "Say": 2332,
      "Sus": 2333,
      "Tr": 2334,
      "VI": 2335,
      "Wi": 2336,
      "Wo": 2337,
      "Wed": 2338,
      "Wife": 2339,
      "ZEN": 2340,
      "_Draw": 2341,
      "_Aside": 2342,
      "alo": 2343,
      "ather": 2344,
      "aks": 2345,
      "bour": 2346,
      "bark": 2347,
      "bud": 2348,
      "born": 2349,
      "borrow": 2350,
      "brows": 2351,
      "catch": 2352,
      "carry": 2353,
      "climb": 2354,
      "dro": 2355,
      "dal": 2356,
      "ders": 2357,
      "dated": 2358,
      "diff": 2359,
      "danc": 2360,
      "eous": 2361,
      "equi": 2362,
      "fut": 2363,
      "fam": 2364,
      "food": 2365,
      "fright": 2366,
      "flies": 2367,
      "fury": 2368,
      "frown": 2369,
      "fond": 2370,
      "gle": 2371,
      "ges": 2372,
      "grow": 2373,
      "gment": 2374,
      "gaz": 2375,
      "har": 2376,
      "hend": 2377,
      "hind": 2378,
      "humour": 2379,
      "ip": 2380,
      "iam": 2381,
      "ju": 2382,
      "jour": 2383,
      "kne": 2384,
      "knew": 2385,
      "kisses": 2386,
      "lan": 2387,
      "len": 2388,
      "links": 2389,
      "lends": 2390,
      "mi": 2391,
      "mand": 2392,
      "mood": 2393,
      "mitt": 2394,
      "ny": 2395,
      "ote": 2396,
      "pin": 2397,
      "por": 2398,
      "phe": 2399,
      "pes": 2400,
      "phi": 2401,
      "pment": 2402,
      "pure": 2403,
      "page": 2404,
      "pack": 2405,
      "ror": 2406,
      "rat": 2407,
      "rul": 2408,
      "rouse": 2409,
      "ratch": 2410,
      "sk": 2411,
      "sy": 2412,
      "shi": 2413,
      "sur": 2414,
      "sho": 2415,
      "sic": 2416,
      "smo": 2417,
      "ten": 2418,
      "tro": 2419,
      "tid": 2420,
      "twas": 2421,
      "uck": 2422,
      "ush": 2423,
      "ump": 2424,
      "uous": 2425,
      "uff": 2426,
      "van": 2427,
      "val": 2428,
      "vour": 2429,
      "vish": 2430,
      "wat": 2431,
      "wood": 2432,
      "wound": 2433,
      "wink": 2434,
      "wagg": 2435,
      "year": 2436,
      "’?": 2437,
      "thri": 2438,
      "thir": 2439,
      "erent": 2440,
      "erous": 2441,
      "ouble": 2442,
      "ining": 2443,
      "information": 2444,
      "inconstant": 2445,
      "anon": 2446,
      "aning": 2447,
      "orch": 2448,
      "ari": 2449,
      "array": 2450,
      "encounter": 2451,
      "onoun": 2452,
      "mes": 2453,
      "meat": 2454,
      "meant": 2455,
      "mess": 2456,
      "stre": 2457,
      "stal": 2458,
      "stone": 2459,
      "strel": 2460,
      "stum": 2461,
      "top": 2462,
      "toad": 2463,
      "told": 2464,
      "tock": 2465,
      "today": 2466,
      "toil": 2467,
      "ander": 2468,
      "sequ": 2469,
      "semb": 2470,
      "ref": 2471,
      "report": 2472,
      "heard": 2473,
      "health": 2474,
      "lest": 2475,
      "leap": 2476,
      "vex": 2477,
      "wide": 2478,
      "offi": 2479,
      "ingale": 2480,
      "itch": 2481,
      "bey": 2482,
      "bell": 2483,
      "belong": 2484,
      "beats": 2485,
      "believe": 2486,
      "utter": 2487,
      "def": 2488,
      "dep": 2489,
      "deli": 2490,
      "deal": 2491,
      "deter": 2492,
      "demn": 2493,
      "devil": 2494,
      "lip": 2495,
      "lick": 2496,
      "liber": 2497,
      "liken": 2498,
      "nder": 2499,
      "forty": 2500,
      "forts": 2501,
      "forward": 2502,
      "lot": 2503,
      "lost": 2504,
      "loso": 2505,
      "lover": 2506,
      "loath": 2507,
      "logs": 2508,
      "locks": 2509,
      "withdraw": 2510,
      "asion": 2511,
      "aside": 2512,
      "rief": 2513,
      "ading": 2514,
      "adie": 2515,
      "notice": 2516,
      "esy": 2517,
      "als": 2518,
      "alas": 2519,
      "ety": 2520,
      "eding": 2521,
      "thout": 2522,
      "entity": 2523,
      "entio": 2524,
      "hid": 2525,
      "hire": 2526,
      "ween": 2527,
      "urb": 2528,
      "urg": 2529,
      "uring": 2530,
      "ural": 2531,
      "oward": 2532,
      "agre": 2533,
      "agate": 2534,
      "ooth": 2535,
      "term": 2536,
      "tern": 2537,
      "ung": 2538,
      "unluck": 2539,
      "unaccustom": 2540,
      "worth": 2541,
      "worse": 2542,
      "worthy": 2543,
      "worship": 2544,
      "Three": 2545,
      "Things": 2546,
      "amine": 2547,
      "aints": 2548,
      "onest": 2549,
      "cking": 2550,
      "ident": 2551,
      "hollow": 2552,
      "loves": 2553,
      "ape": 2554,
      "apo": 2555,
      "apt": 2556,
      "appre": 2557,
      "fai": 2558,
      "fail": 2559,
      "nephe": 2560,
      "shut": 2561,
      "share": 2562,
      "teous": 2563,
      "teach": 2564,
      "mail": 2565,
      "spent": 2566,
      "spic": 2567,
      "user": 2568,
      "usion": 2569,
      "morn": 2570,
      "yours": 2571,
      "uel": 2572,
      "rather": 2573,
      "raven": 2574,
      "raise": 2575,
      "icular": 2576,
      "laugh": 2577,
      "suit": 2578,
      "conce": 2579,
      "consid": 2580,
      "contact": 2581,
      "ability": 2582,
      "moder": 2583,
      "modest": 2584,
      "discords": 2585,
      "nightingale": 2586,
      "each": 2587,
      "Jule": 2588,
      "going": 2589,
      "goes": 2590,
      "govern": 2591,
      "mary": 2592,
      "tail": 2593,
      "taste": 2594,
      "anywhere": 2595,
      "proper": 2596,
      "produ": 2597,
      "provis": 2598,
      "trans": 2599,
      "trouble": 2600,
      "women": 2601,
      "seem": 2602,
      "seeing": 2603,
      "mayst": 2604,
      "sirrah": 2605,
      "used": 2606,
      "wouldst": 2607,
      "pres": 2608,
      "ounded": 2609,
      "thanks": 2610,
      "deadly": 2611,
      "hyme": 2612,
      "exchange": 2613,
      "knows": 2614,
      "owner": 2615,
      "efforts": 2616,
      "Though": 2617,
      "particular": 2618,
      "blest": 2619,
      "bless": 2620,
      "vice": 2621,
      "prison": 2622,
      "triump": 2623,
      "whole": 2624,
      "Dost": 2625,
      "accord": 2626,
      "opport": 2627,
      "sweetest": 2628,
      "THIS": 2629,
      "cial": 2630,
      "deriv": 2631,
      "joint": 2632,
      "Because": 2633,
      "fiend": 2634,
      "fickle": 2635,
      "lust": 2636,
      "hearts": 2637,
      "ches": 2638,
      "scratch": 2639,
      "brain": 2640,
      "backward": 2641,
      "drunk": 2642,
      "Unto": 2643,
      "heavens": 2644,
      "looking": 2645,
      "struck": 2646,
      "AGRE": 2647,
      "REA": 2648,
      "dress": 2649,
      "greet": 2650,
      "stands": 2651,
      "serving": 2652,
      "grie": 2653,
      "tains": 2654,
      "licable": 2655,
      "grant": 2656,
      "fully": 2657,
      "children": 2658,
      "courteous": 2659,
      "deny": 2660,
      "prayer": 2661,
      "falls": 2662,
      "offer": 2663,
      "official": 2664,
      "needy": 2665,
      "dreamt": 2666,
      "CITI": 2667,
      "bridal": 2668,
      "dug": 2669,
      "dump": 2670,
      "pleas": 2671,
      "faithful": 2672,
      "month": 2673,
      "rapier": 2674,
      "beauties": 2675,
      "weeping": 2676,
      "USIN": 2677,
      "clos": 2678,
      "clock": 2679,
      "immedi": 2680,
      "immortal": 2681,
      "priv": 2682,
      "between": 2683,
      "applicable": 2684,
      "quarre": 2685,
      "William": 2686,
      "rank": 2687,
      "griefs": 2688,
      "airy": 2689,
      "creating": 2690,
      "creature": 2691,
      "minstrel": 2692,
      "purg": 2693,
      "walls": 2694,
      "included": 2695,
      "often": 2696,
      "murderer": 2697,
      "paragraphs": 2698,
      "LIMIT": 2699,
      "emplo": 2700,
      "natural": 2701,
      "plant": 2702,
      "turns": 2703,
      "visor": 2704,
      "visit": 2705,
      "kindred": 2706,
      "paying": 2707,
      "payments": 2708,
      "supper": 2709,
      "thoughts": 2710,
      "lasting": 2711,
      "protest": 2712,
      "truly": 2713,
      "buy": 2714,
      "honey": 2715,
      "beseeming": 2716,
      "tempt": 2717,
      "subject": 2718,
      "substance": 2719,
      "IND": 2720,
      "horses": 2721,
      "obtain": 2722,
      "powder": 2723,
      "wakes": 2724,
      "youthful": 2725,
      "fellows": 2726,
      "thankful": 2727,
      "joints": 2728,
      "complying": 2729,
      "afternoon": 2730,
      "cries": 2731,
      "finger": 2732,
      "gallant": 2733,
      "slave": 2734,
      "wax": 2735,
      "waste": 2736,
      "confession": 2737,
      "cruel": 2738,
      "patient": 2739,
      "wretch": 2740,
      "strike": 2741,
      "strife": 2742,
      "limitation": 2743,
      "presently": 2744,
      "Should": 2745,
      "Sirrah": 2746,
      "athed": 2747,
      "certain": 2748,
      "calm": 2749,
      "field": 2750,
      "guil": 2751,
      "physic": 2752,
      "summer": 2753,
      "Gentlemen": 2754,
      "Help": 2755,
      "blows": 2756,
      "cross": 2757,
      "craves": 2758,
      "guests": 2759,
      "nesday": 2760,
      "occasion": 2761,
      "white": 2762,
      "wonder": 2763,
      "devise": 2764,
      "defective": 2765,
      "contin": 2766,
      "expense": 2767,
      "tremble": 2768,
      "affections": 2769,
      "beggar": 2770,
      "plague": 2771,
      "pilgrim": 2772,
      "Commend": 2773,
      "_Retires": 2774,
      "burden": 2775,
      "circ": 2776,
      "cursed": 2777,
      "dinner": 2778,
      "false": 2779,
      "mattock": 2780,
      "slander": 2781,
      "vances": 2782,
      "replacement": 2783,
      "remedy": 2784,
      "rosemary": 2785,
      "royalties": 2786,
      "shroud": 2787,
      "contrary": 2788,
      "conduct": 2789,
      "abroad": 2790,
      "disturb": 2791,
      "oppression": 2792,
      "courtesy": 2793,
      "receipt": 2794,
      "solemnity": 2795,
      "virtuous": 2796,
      "Beaut": 2797,
      "COUSIN": 2798,
      "DAMAGE": 2799,
      "Else": 2800,
      "Gregory": 2801,
      "ILITY": 2802,
      "Jesu": 2803,
      "Lammas": 2804,
      "Maskers": 2805,
      "Susan": 2806,
      "Without": 2807,
      "Women": 2808,
      "Wednesday": 2809,
      "aloof": 2810,
      "different": 2811,
      "equipment": 2812,
      "future": 2813,
      "gaze": 2814,
      "knees": 2815,
      "mitted": 2816,
      "philoso": 2817,
      "tidings": 2818,
      "valour": 2819,
      "waggon": 2820,
      "onounce": 2821,
      "office": 2822,
      "determine": 2823,
      "liberty": 2824,
      "likeness": 2825,
      "loathsome": 2826,
      "adieu": 2827,
      "apprehend": 2828,
      "nephew": 2829,
      "modesty": 2830,
      "triumph": 2831,
      "opportun": 2832,
      "derivative": 2833,
      "AGREE": 2834,
      "CITIZEN": 2835,
      "LIMITED": 2836,
      "philosophy": 2837,
      "--": 2838,
      "01": 2839,
      "11": 2840,
      "20": 2841,
      "22": 2842,
      "90": 2843,
      "Ab": 2844,
      "Af": 2845,
      "Amen": 2846,
      "ASC": 2847,
      "Again": 2848,
      "BE": 2849,
      "BO": 2850,
      "Ban": 2851,
      "Bro": 2852,
      "Bes": 2853,
      "Bid": 2854,
      "Bear": 2855,
      "BREA": 2856,
      "Che": 2857,
      "CEN": 2858,
      "Chor": 2859,
      "Don": 2860,
      "Dry": 2861,
      "Down": 2862,
      "Dies": 2863,
      "EM": 2864,
      "EX": 2865,
      "En": 2866,
      "Eve": 2867,
      "Ever": 2868,
      "EBO": 2869,
      "Fr": 2870,
      "FUL": 2871,
      "Fall": 2872,
      "Fear": 2873,
      "GUE": 2874,
      "Grief": 2875,
      "Hear": 2876,
      "Hea": 2877,
      "Happ": 2878,
      "Honest": 2879,
      "Im": 2880,
      "Inter": 2881,
      "King": 2882,
      "LE": 2883,
      "LO": 2884,
      "Le": 2885,
      "Lo": 2886,
      "Lay": 2887,
      "Live": 2888,
      "Lies": 2889,
      "Lest": 2890,
      "Mu": 2891,
      "Men": 2892,
      "Mine": 2893,
      "Must": 2894,
      "Miss": 2895,
      "NT": 2896,
      "OK": 2897,
      "OSE": 2898,
      "Per": 2899,
      "Pri": 2900,
      "Plain": 2901,
      "Place": 2902,
      "Pardon": 2903,
      "Red": 2904,
      "SS": 2905,
      "Sa": 2906,
      "Sup": 2907,
      "Send": 2908,
      "Sear": 2909,
      "Str": 2910,
      "Show": 2911,
      "Sleep": 2912,
      "Soft": 2913,
      "Stop": 2914,
      "TO": 2915,
      "TR": 2916,
      "Ter": 2917,
      "Tit": 2918,
      "TRI": 2919,
      "Tick": 2920,
      "Taking": 2921,
      "Tush": 2922,
      "Toward": 2923,
      "Use": 2924,
      "UND": 2925,
      "Under": 2926,
      "Van": 2927,
      "Ven": 2928,
      "Val": 2929,
      "Villain": 2930,
      "WI": 2931,
      "While": 2932,
      "Whither": 2933,
      "Yes": 2934,
      "Zounds": 2935,
      "_S": 2936,
      "_Th": 2937,
      "_He": 2938,
      "_Ad": 2939,
      "_Dies": 2940,
      "_Fall": 2941,
      "_Lay": 2942,
      "ae": 2943,
      "ah": 2944,
      "aqu": 2945,
      "afore": 2946,
      "alike": 2947,
      "abed": 2948,
      "ava": 2949,
      "ba": 2950,
      "bone": 2951,
      "bber": 2952,
      "bask": 2953,
      "bore": 2954,
      "base": 2955,
      "bier": 2956,
      "bagg": 2957,
      "bade": 2958,
      "cat": 2959,
      "cand": 2960,
      "cing": 2961,
      "cun": 2962,
      "cul": 2963,
      "cast": 2964,
      "cave": 2965,
      "cook": 2966,
      "corn": 2967,
      "cats": 2968,
      "clear": 2969,
      "citizens": 2970,
      "cified": 2971,
      "dy": 2972,
      "dle": 2973,
      "doo": 2974,
      "dun": 2975,
      "due": 2976,
      "dity": 2977,
      "danger": 2978,
      "dash": 2979,
      "eg": 2980,
      "em": 2981,
      "eas": 2982,
      "fan": 2983,
      "fis": 2984,
      "fre": 2985,
      "fit": 2986,
      "fro": 2987,
      "fli": 2988,
      "fed": 2989,
      "fic": 2990,
      "fish": 2991,
      "furn": 2992,
      "fled": 2993,
      "fru": 2994,
      "fits": 2995,
      "gl": 2996,
      "gy": 2997,
      "gen": 2998,
      "gent": 2999,
      "gue": 3000,
      "gear": 3001,
      "gled": 3002,
      "grows": 3003,
      "grown": 3004,
      "general": 3005,
      "hu": 3006,
      "hunt": 3007,
      "hrew": 3008,
      "hung": 3009,
      "ient": 3010,
      "ila": 3011,
      "ible": 3012,
      "imer": 3013,
      "ja": 3014,
      "jur": 3015,
      "just": 3016,
      "jud": 3017,
      "kno": 3018,
      "knight": 3019,
      "lar": 3020,
      "lend": 3021,
      "lers": 3022,
      "link": 3023,
      "langu": 3024,
      "mou": 3025,
      "mut": 3026,
      "mal": 3027,
      "mour": 3028,
      "mart": 3029,
      "mies": 3030,
      "mity": 3031,
      "nal": 3032,
      "net": 3033,
      "nurse": 3034,
      "nie": 3035,
      "naught": 3036,
      "nice": 3037,
      "nurs": 3038,
      "nim": 3039,
      "obed": 3040,
      "ped": 3041,
      "pun": 3042,
      "path": 3043,
      "pear": 3044,
      "pity": 3045,
      "pest": 3046,
      "plain": 3047,
      "paint": 3048,
      "pains": 3049,
      "pluck": 3050,
      "rt": 3051,
      "rag": 3052,
      "rup": 3053,
      "rus": 3054,
      "rate": 3055,
      "rind": 3056,
      "rance": 3057,
      "rite": 3058,
      "rhyme": 3059,
      "sor": 3060,
      "sch": 3061,
      "snow": 3062,
      "salt": 3063,
      "sie": 3064,
      "song": 3065,
      "sink": 3066,
      "sac": 3067,
      "sings": 3068,
      "skill": 3069,
      "swer": 3070,
      "sits": 3071,
      "sister": 3072,
      "shop": 3073,
      "slip": 3074,
      "saints": 3075,
      "tto": 3076,
      "tut": 3077,
      "tent": 3078,
      "trow": 3079,
      "table": 3080,
      "tpan": 3081,
      "twel": 3082,
      "uil": 3083,
      "ugs": 3084,
      "vit": 3085,
      "vive": 3086,
      "viness": 3087,
      "vari": 3088,
      "went": 3089,
      "ware": 3090,
      "whis": 3091,
      "whip": 3092,
      "wounded": 3093,
      "ze": 3094,
      "zy": 3095,
      "zen": 3096,
      "zel": 3097,
      "’—": 3098,
      "thi": 3099,
      "thread": 3100,
      "thrown": 3101,
      "threat": 3102,
      "erce": 3103,
      "erence": 3104,
      "erations": 3105,
      "inv": 3106,
      "iny": 3107,
      "intell": 3108,
      "instr": 3109,
      "inently": 3110,
      "infection": 3111,
      "anation": 3112,
      "thest": 3113,
      "isure": 3114,
      "isans": 3115,
      "istribut": 3116,
      "oro": 3117,
      "orous": 3118,
      "orig": 3119,
      "arg": 3120,
      "arrow": 3121,
      "arise": 3122,
      "enger": 3123,
      "enquire": 3124,
      "enforce": 3125,
      "enmity": 3126,
      "ata": 3127,
      "ator": 3128,
      "atta": 3129,
      "ony": 3130,
      "oning": 3131,
      "llist": 3132,
      "meats": 3133,
      "sto": 3134,
      "stout": 3135,
      "stab": 3136,
      "step": 3137,
      "stret": 3138,
      "store": 3139,
      "stiv": 3140,
      "stol": 3141,
      "stones": 3142,
      "story": 3143,
      "stiff": 3144,
      "stinted": 3145,
      "stuff": 3146,
      "stony": 3147,
      "tops": 3148,
      "tossed": 3149,
      "andsire": 3150,
      "seal": 3151,
      "sepul": 3152,
      "reen": 3153,
      "reve": 3154,
      "reck": 3155,
      "revi": 3156,
      "rejo": 3157,
      "reach": 3158,
      "reign": 3159,
      "removed": 3160,
      "research": 3161,
      "request": 3162,
      "resol": 3163,
      "held": 3164,
      "heed": 3165,
      "legs": 3166,
      "leisure": 3167,
      "veth": 3168,
      "vestal": 3169,
      "wixt": 3170,
      "widest": 3171,
      "widow": 3172,
      "wield": 3173,
      "nose": 3174,
      "itiful": 3175,
      "bes": 3176,
      "beam": 3177,
      "besh": 3178,
      "bears": 3179,
      "bethink": 3180,
      "behind": 3181,
      "ham": 3182,
      "has": 3183,
      "hall": 3184,
      "havi": 3185,
      "hazel": 3186,
      "utch": 3187,
      "chre": 3188,
      "chie": 3189,
      "chol": 3190,
      "roy": 3191,
      "room": 3192,
      "roses": 3193,
      "roaring": 3194,
      "robes": 3195,
      "deck": 3196,
      "deare": 3197,
      "delay": 3198,
      "devo": 3199,
      "deaf": 3200,
      "debt": 3201,
      "detest": 3202,
      "desire": 3203,
      "demand": 3204,
      "demes": 3205,
      "lied": 3206,
      "liqu": 3207,
      "livery": 3208,
      "liability": 3209,
      "cels": 3210,
      "fors": 3211,
      "forbid": 3212,
      "forbear": 3213,
      "forgot": 3214,
      "forfeit": 3215,
      "lose": 3216,
      "loathed": 3217,
      "heral": 3218,
      "herbs": 3219,
      "ashes": 3220,
      "rid": 3221,
      "ride": 3222,
      "rike": 3223,
      "rict": 3224,
      "rious": 3225,
      "ads": 3226,
      "adise": 3227,
      "adjoin": 3228,
      "alk": 3229,
      "also": 3230,
      "aloud": 3231,
      "etary": 3232,
      "lding": 3233,
      "entre": 3234,
      "entreat": 3235,
      "entrance": 3236,
      "hie": 3237,
      "web": 3238,
      "wealth": 3239,
      "wearing": 3240,
      "weeds": 3241,
      "week": 3242,
      "urvy": 3243,
      "MENT": 3244,
      "owed": 3245,
      "ago": 3246,
      "aged": 3247,
      "ool": 3248,
      "terror": 3249,
      "ctly": 3250,
      "soar": 3251,
      "soever": 3252,
      "uni": 3253,
      "worms": 3254,
      "worser": 3255,
      "Think": 3256,
      "Through": 3257,
      "amp": 3258,
      "amen": 3259,
      "amaz": 3260,
      "amorous": 3261,
      "ours": 3262,
      "hereabout": 3263,
      "hereafter": 3264,
      "does": 3265,
      "domain": 3266,
      "onese": 3267,
      "END": 3268,
      "few": 3269,
      "felt": 3270,
      "feud": 3271,
      "feather": 3272,
      "festiv": 3273,
      "ckled": 3274,
      "vert": 3275,
      "verty": 3276,
      "comb": 3277,
      "copi": 3278,
      "holi": 3279,
      "lovely": 3280,
      "manage": 3281,
      "mansion": 3282,
      "manners": 3283,
      "manner": 3284,
      "mangled": 3285,
      "apace": 3286,
      "fast": 3287,
      "favour": 3288,
      "sham": 3289,
      "shaft": 3290,
      "shapen": 3291,
      "shadow": 3292,
      "shaped": 3293,
      "lete": 3294,
      "nest": 3295,
      "neck": 3296,
      "neath": 3297,
      "necess": 3298,
      "neigh": 3299,
      "awake": 3300,
      "ION": 3301,
      "shown": 3302,
      "team": 3303,
      "text": 3304,
      "making": 3305,
      "spy": 3306,
      "sport": 3307,
      "spake": 3308,
      "spurs": 3309,
      "spring": 3310,
      "spade": 3311,
      "sperous": 3312,
      "illa": 3313,
      "ills": 3314,
      "ART": 3315,
      "ectual": 3316,
      "shed": 3317,
      "outside": 3318,
      "outrage": 3319,
      "antas": 3320,
      "antic": 3321,
      "antime": 3322,
      "endure": 3323,
      "icate": 3324,
      "ication": 3325,
      "lazy": 3326,
      "suing": 3327,
      "suck": 3328,
      "sullen": 3329,
      "suspic": 3330,
      "earl": 3331,
      "contain": 3332,
      "confir": 3333,
      "concept": 3334,
      "concer": 3335,
      "containing": 3336,
      "convert": 3337,
      "Tomorrow": 3338,
      "abuse": 3339,
      "abhor": 3340,
      "absol": 3341,
      "ification": 3342,
      "mod": 3343,
      "mov": 3344,
      "motion": 3345,
      "canker": 3346,
      "disco": 3347,
      "discour": 3348,
      "distill": 3349,
      "distemper": 3350,
      "disposition": 3351,
      "dismal": 3352,
      "disobed": 3353,
      "nightly": 3354,
      "Just": 3355,
      "iling": 3356,
      "ational": 3357,
      "Capel": 3358,
      "potion": 3359,
      "poverty": 3360,
      "taken": 3361,
      "Except": 3362,
      "Examine": 3363,
      "whatsoever": 3364,
      "propri": 3365,
      "procure": 3366,
      "prosperous": 3367,
      "quite": 3368,
      "quaint": 3369,
      "quench": 3370,
      "trench": 3371,
      "trudge": 3372,
      "tire": 3373,
      "tiest": 3374,
      "seems": 3375,
      "thence": 3376,
      "sometime": 3377,
      "presses": 3378,
      "botto": 3379,
      "tyrant": 3380,
      "fairer": 3381,
      "fairly": 3382,
      "extre": 3383,
      "excell": 3384,
      "exemp": 3385,
      "expl": 3386,
      "extrem": 3387,
      "excels": 3388,
      "order": 3389,
      "lights": 3390,
      "owns": 3391,
      "peri": 3392,
      "perfor": 3393,
      "peril": 3394,
      "perforce": 3395,
      "permitted": 3396,
      "effort": 3397,
      "effect": 3398,
      "partisans": 3399,
      "Monday": 3400,
      "Monument": 3401,
      "bleeding": 3402,
      "miss": 3403,
      "mista": 3404,
      "misery": 3405,
      "misfortune": 3406,
      "miserable": 3407,
      "misadventure": 3408,
      "vial": 3409,
      "heaviness": 3410,
      "Still": 3411,
      "Strike": 3412,
      "printed": 3413,
      "proro": 3414,
      "likewise": 3415,
      "Indeed": 3416,
      "loose": 3417,
      "lower": 3418,
      "trim": 3419,
      "aches": 3420,
      "account": 3421,
      "msday": 3422,
      "ope": 3423,
      "ops": 3424,
      "volt": 3425,
      "volu": 3426,
      "newly": 3427,
      "THIR": 3428,
      "Prof": 3429,
      "Pray": 3430,
      "Prates": 3431,
      "Proud": 3432,
      "Pronounce": 3433,
      "fix": 3434,
      "fiery": 3435,
      "breathe": 3436,
      "eleven": 3437,
      "scene": 3438,
      "scape": 3439,
      "enemies": 3440,
      "compare": 3441,
      "brings": 3442,
      "brains": 3443,
      "drag": 3444,
      "dram": 3445,
      "drugs": 3446,
      "Going": 3447,
      "household": 3448,
      "akest": 3449,
      "called": 3450,
      "write": 3451,
      "wrought": 3452,
      "eyesight": 3453,
      "tributions": 3454,
      "angled": 3455,
      "strain": 3456,
      "strains": 3457,
      "lieu": 3458,
      "liest": 3459,
      "electronically": 3460,
      "Any": 3461,
      "Answer": 3462,
      "IRECT": 3463,
      "dig": 3464,
      "dim": 3465,
      "dign": 3466,
      "Scurvy": 3467,
      "dearly": 3468,
      "START": 3469,
      "drew": 3470,
      "gress": 3471,
      "hearing": 3472,
      "itting": 3473,
      "keeping": 3474,
      "madman": 3475,
      "finds": 3476,
      "serp": 3477,
      "stays": 3478,
      "counsell": 3479,
      "sauc": 3480,
      "tainted": 3481,
      "undone": 3482,
      "ishes": 3483,
      "common": 3484,
      "commend": 3485,
      "marked": 3486,
      "fools": 3487,
      "gru": 3488,
      "grandsire": 3489,
      "parents": 3490,
      "paradise": 3491,
      "restrict": 3492,
      "helps": 3493,
      "joys": 3494,
      "began": 3495,
      "begins": 3496,
      "beguil": 3497,
      "Arise": 3498,
      "courti": 3499,
      "courts": 3500,
      "merit": 3501,
      "merch": 3502,
      "merri": 3503,
      "rung": 3504,
      "prayers": 3505,
      "daughters": 3506,
      "asked": 3507,
      "assist": 3508,
      "graves": 3509,
      "Veronese": 3510,
      "dull": 3511,
      "everlasting": 3512,
      "pair": 3513,
      "sounding": 3514,
      "soundly": 3515,
      "vail": 3516,
      "bandy": 3517,
      "plays": 3518,
      "beauteous": 3519,
      "charm": 3520,
      "mothers": 3521,
      "torment": 3522,
      "torches": 3523,
      "yew": 3524,
      "readable": 3525,
      "despair": 3526,
      "souls": 3527,
      "Sometime": 3528,
      "couldst": 3529,
      "murders": 3530,
      "pride": 3531,
      "price": 3532,
      "prick": 3533,
      "portion": 3534,
      "twain": 3535,
      "umstance": 3536,
      "steal": 3537,
      "versal": 3538,
      "appears": 3539,
      "THAT": 3540,
      "drawn": 3541,
      "clout": 3542,
      "sending": 3543,
      "uments": 3544,
      "leaves": 3545,
      "underneath": 3546,
      "broke": 3547,
      "created": 3548,
      "groan": 3549,
      "gross": 3550,
      "groans": 3551,
      "pump": 3552,
      "puff": 3553,
      "smooth": 3554,
      "sleeps": 3555,
      "wert": 3556,
      "watching": 3557,
      "IVE": 3558,
      "LIAB": 3559,
      "LICEN": 3560,
      "Royalt": 3561,
      "native": 3562,
      "pens": 3563,
      "penny": 3564,
      "silk": 3565,
      "winds": 3566,
      "receive": 3567,
      "boys": 3568,
      "comfortable": 3569,
      "flowered": 3570,
      "pierc": 3571,
      "pilot": 3572,
      "passing": 3573,
      "passion": 3574,
      "passado": 3575,
      "suppos": 3576,
      "wedded": 3577,
      "attering": 3578,
      "greater": 3579,
      "ATION": 3580,
      "Seal": 3581,
      "corpor": 3582,
      "farther": 3583,
      "farthest": 3584,
      "overlooking": 3585,
      "prominently": 3586,
      "sorrows": 3587,
      "stirs": 3588,
      "advance": 3589,
      "advanc": 3590,
      "substant": 3591,
      "ING": 3592,
      "Poison": 3593,
      "Potpan": 3594,
      "damages": 3595,
      "fights": 3596,
      "obtaining": 3597,
      "obsequ": 3598,
      "waken": 3599,
      "specified": 3600,
      "womanish": 3601,
      "served": 3602,
      "foolish": 3603,
      "learned": 3604,
      "Defect": 3605,
      "Henceforward": 3606,
      "active": 3607,
      "burnt": 3608,
      "burning": 3609,
      "gallops": 3610,
      "lamentation": 3611,
      "mightst": 3612,
      "single": 3613,
      "singular": 3614,
      "wait": 3615,
      "wanting": 3616,
      "istered": 3617,
      "reasonable": 3618,
      "feasting": 3619,
      "mortals": 3620,
      "posed": 3621,
      "prettiest": 3622,
      "confessor": 3623,
      "persons": 3624,
      "PROLO": 3625,
      "crutch": 3626,
      "crying": 3627,
      "drift": 3628,
      "palace": 3629,
      "ulls": 3630,
      "registered": 3631,
      "destroy": 3632,
      "limited": 3633,
      "solely": 3634,
      "costs": 3635,
      "counterfeit": 3636,
      "Meaning": 3637,
      "Meantime": 3638,
      "blade": 3639,
      "calcul": 3640,
      "claim": 3641,
      "flattering": 3642,
      "hangs": 3643,
      "merciful": 3644,
      "throne": 3645,
      "doors": 3646,
      "hoarse": 3647,
      "conjur": 3648,
      "maidenhead": 3649,
      "windows": 3650,
      "bitterly": 3651,
      "Among": 3652,
      "Having": 3653,
      "Helen": 3654,
      "Mistress": 3655,
      "Misshapen": 3656,
      "NOT": 3657,
      "chase": 3658,
      "challen": 3659,
      "carrion": 3660,
      "knocks": 3661,
      "towards": 3662,
      "several": 3663,
      "repent": 3664,
      "choice": 3665,
      "delights": 3666,
      "descend": 3667,
      "limbs": 3668,
      "content": 3669,
      "violent": 3670,
      "brawl": 3671,
      "brawls": 3672,
      "smiles": 3673,
      "pilgrims": 3674,
      "paper_": 3675,
      "Desp": 3676,
      "Holy": 3677,
      "Need": 3678,
      "brave": 3679,
      "bigger": 3680,
      "giving": 3681,
      "gladly": 3682,
      "pract": 3683,
      "piece": 3684,
      "question": 3685,
      "tedious": 3686,
      "thinkest": 3687,
      "method": 3688,
      "methinks": 3689,
      "storm": 3690,
      "starts": 3691,
      "heels": 3692,
      "legal": 3693,
      "cherish": 3694,
      "lodging": 3695,
      "soldier": 3696,
      "solicit": 3697,
      "wormwood": 3698,
      "dovehouse": 3699,
      "sharp": 3700,
      "discovered": 3701,
      "disclaim": 3702,
      "disclaimer": 3703,
      "gossip": 3704,
      "vengeance": 3705,
      "accepted": 3706,
      "scarlet": 3707,
      "computer": 3708,
      "computers": 3709,
      "divine": 3710,
      "valiant": 3711,
      "validity": 3712,
      "ornaments": 3713,
      "promoting": 3714,
      "promotion": 3715,
      "palmers": 3716,
      "additional": 3717,
      "Franciscan": 3718,
      "WARRANTY": 3719,
      "WARRANTIES": 3720,
      "weapons": 3721,
      "Comp": 3722,
      "DISTRI": 3723,
      "Gallery": 3724,
      "Nightly": 3725,
      "True": 3726,
      "_Drawing": 3727,
      "drop": 3728,
      "dancing": 3729,
      "family": 3730,
      "harlo": 3731,
      "juries": 3732,
      "lantern": 3733,
      "leness": 3734,
      "moody": 3735,
      "skulls": 3736,
      "shoes": 3737,
      "smoke": 3738,
      "troth": 3739,
      "vanity": 3740,
      "water": 3741,
      "thirty": 3742,
      "orchard": 3743,
      "messenger": 3744,
      "streaks": 3745,
      "stumble": 3746,
      "reference": 3747,
      "belonging": 3748,
      "defy": 3749,
      "deliver": 3750,
      "demned": 3751,
      "unlucky": 3752,
      "apothecary": 3753,
      "fairies": 3754,
      "considerable": 3755,
      "moderately": 3756,
      "tailor": 3757,
      "property": 3758,
      "provision": 3759,
      "transcri": 3760,
      "presence": 3761,
      "accordance": 3762,
      "lusty": 3763,
      "greeting": 3764,
      "immediate": 3765,
      "private": 3766,
      "quarrelling": 3767,
      "minstrels": 3768,
      "employe": 3769,
      "guilty": 3770,
      "physical": 3771,
      "continue": 3772,
      "expenses": 3773,
      "circumstance": 3774,
      "Beauty": 3775,
      "DAMAGES": 3776,
      "waggoner": 3777,
      "opportunity": 3778,
      "ASCII": 3779,
      "Brother": 3780,
      "Beshrew": 3781,
      "BREACH": 3782,
      "Chorus": 3783,
      "Donations": 3784,
      "Evermore": 3785,
      "EBOOK": 3786,
      "French": 3787,
      "FULL": 3788,
      "Heaven": 3789,
      "Prick": 3790,
      "Redistribut": 3791,
      "Search": 3792,
      "Terms": 3793,
      "Towards": 3794,
      "Vanilla": 3795,
      "Venus": 3796,
      "_Throws": 3797,
      "_Advances": 3798,
      "_Falls": 3799,
      "_Laying": 3800,
      "aqua": 3801,
      "availa": 3802,
      "bbering": 3803,
      "basket": 3804,
      "based": 3805,
      "baggage": 3806,
      "cunning": 3807,
      "corns": 3808,
      "doomsday": 3809,
      "duellist": 3810,
      "egg": 3811,
      "fresh": 3812,
      "federal": 3813,
      "furnish": 3814,
      "fruit": 3815,
      "generations": 3816,
      "judgment": 3817,
      "knowest": 3818,
      "mouth": 3819,
      "mutiny": 3820,
      "nimble": 3821,
      "pestil": 3822,
      "rupt": 3823,
      "rushes": 3824,
      "school": 3825,
      "siege": 3826,
      "sacri": 3827,
      "tutor": 3828,
      "twelve": 3829,
      "vitae": 3830,
      "threaten": 3831,
      "intellectual": 3832,
      "instruments": 3833,
      "origin": 3834,
      "sepulchre": 3835,
      "reckoning": 3836,
      "reviv": 3837,
      "rejoice": 3838,
      "beams": 3839,
      "beshrew": 3840,
      "haviour": 3841,
      "choler": 3842,
      "dearest": 3843,
      "devotion": 3844,
      "detestable": 3845,
      "demesnes": 3846,
      "herald": 3847,
      "adjoining": 3848,
      "festival": 3849,
      "copied": 3850,
      "shadows": 3851,
      "necessar": 3852,
      "neighbour": 3853,
      "suspicion": 3854,
      "concerning": 3855,
      "discourses": 3856,
      "disobedient": 3857,
      "proprietary": 3858,
      "trencher": 3859,
      "bottom": 3860,
      "excellent": 3861,
      "exempt": 3862,
      "explanation": 3863,
      "volume": 3864,
      "THIRD": 3865,
      "households": 3866,
      "counsellor": 3867,
      "saucy": 3868,
      "restrictions": 3869,
      "LICENSE": 3870,
      "Royalty": 3871,
      "substantial": 3872,
      "obsequies": 3873,
      "PROLOGUE": 3874,
      "challenge": 3875,
      "DISTRIBUT": 3876,
      "references": 3877,
      "available": 3878,
      "!)": 3879,
      "\"),": 3880,
      "',": 3881,
      "(\"": 3882,
      "($": 3883,
      ")(": 3884,
      ",\"": 3885,
      ".\"": 3886,
      "09": 3887,
      "13": 3888,
      "18": 3889,
      "19": 3890,
      "200": 3891,
      "30": 3892,
      "41": 3893,
      "411": 3894,
      "50": 3895,
      "59": 3896,
      "501": 3897,
      "60": 3898,
      "64": 3899,
      "622": 3900,
      "87": 3901,
      "801": 3902,
      "809": 3903,
      "8411": 3904,
      "98": 3905,
      "?—": 3906,
      "AD": 3907,
      "AS": 3908,
      "AV": 3909,
      "Ac": 3910,
      "Ap": 3911,
      "Au": 3912,
      "Aur": 3913,
      "Act": 3914,
      "ASE": 3915,
      "Afore": 3916,
      "Abo": 3917,
      "Alike": 3918,
      "Abr": 3919,
      "Adie": 3920,
      "Apri": 3921,
      "Aff": 3922,
      "Acc": 3923,
      "Abra": 3924,
      "Bo": 3925,
      "Bre": 3926,
      "Bet": 3927,
      "Back": 3928,
      "Bel": 3929,
      "Blu": 3930,
      "Black": 3931,
      "Bring": 3932,
      "Bond": 3933,
      "Brief": 3934,
      "BILITY": 3935,
      "Brag": 3936,
      "CL": 3937,
      "Cy": 3938,
      "Cou": 3939,
      "Cat": 3940,
      "Cre": 3941,
      "Cle": 3942,
      "Cha": 3943,
      "Cour": 3944,
      "Care": 3945,
      "CLA": 3946,
      "Cry": 3947,
      "Cast": 3948,
      "Cold": 3949,
      "Cop": 3950,
      "City": 3951,
      "Clu": 3952,
      "CONT": 3953,
      "Cats": 3954,
      "Conce": 3955,
      "Cull": 3956,
      "Cuts": 3957,
      "Dis": 3958,
      "Den": 3959,
      "Day": 3960,
      "Dri": 3961,
      "DEN": 3962,
      "Dear": 3963,
      "Date": 3964,
      "Dep": 3965,
      "DON": 3966,
      "Del": 3967,
      "Dru": 3968,
      "Dire": 3969,
      "DED": 3970,
      "DIES": 3971,
      "During": 3972,
      "DIRECT": 3973,
      "DING": 3974,
      "EG": 3975,
      "EV": 3976,
      "Ey": 3977,
      "Ear": 3978,
      "East": 3979,
      "Every": 3980,
      "Esc": 3981,
      "ESC": 3982,
      "Eng": 3983,
      "Each": 3984,
      "EIN": 3985,
      "Echo": 3986,
      "Email": 3987,
      "Ethi": 3988,
      "Fe": 3989,
      "Fo": 3990,
      "Fir": 3991,
      "Fly": 3992,
      "Fain": 3993,
      "Five": 3994,
      "Fif": 3995,
      "Fea": 3996,
      "Free": 3997,
      "Fast": 3998,
      "Fetch": 3999,
      "FOU": 4000,
      "FIT": 4001,
      "Famine": 4002,
      "FUND": 4003,
      "Flower": 4004,
      "GH": 4005,
      "Gu": 4006,
      "Gro": 4007,
      "Gra": 4008,
      "GENCE": 4009,
      "Gorg": 4010,
      "Guest": 4011,
      "Grind": 4012,
      "Green": 4013,
      "GIVE": 4014,
      "Hart": 4015,
      "Hap": 4016,
      "Hood": 4017,
      "Hunt": 4018,
      "HANT": 4019,
      "Hugh": 4020,
      "Humour": 4021,
      "HAV": 4022,
      "IF": 4023,
      "IM": 4024,
      "IMER": 4025,
      "ITY": 4026,
      "IBILITY": 4027,
      "Jame": 4028,
      "Jove": 4029,
      "Kill": 4030,
      "KIND": 4031,
      "LL": 4032,
      "La": 4033,
      "Lu": 4034,
      "Lent": 4035,
      "Light": 4036,
      "Lif": 4037,
      "Lea": 4038,
      "Lie": 4039,
      "Lake": 4040,
      "Lover": 4041,
      "Life": 4042,
      "Luc": 4043,
      "Langu": 4044,
      "Mur": 4045,
      "Main": 4046,
      "Mart": 4047,
      "Mic": 4048,
      "Mass": 4049,
      "Move": 4050,
      "Mist": 4051,
      "Made": 4052,
      "Making": 4053,
      "Makes": 4054,
      "Mari": 4055,
      "None": 4056,
      "NER": 4057,
      "Never": 4058,
      "Nearly": 4059,
      "Nell": 4060,
      "Neither": 4061,
      "NIT": 4062,
      "NES": 4063,
      "NEG": 4064,
      "NITY": 4065,
      "OW": 4066,
      "Old": 4067,
      "Over": 4068,
      "OTH": 4069,
      "Open": 4070,
      "Obey": 4071,
      "OSS": 4072,
      "PT": 4073,
      "PU": 4074,
      "Pe": 4075,
      "Pre": 4076,
      "Ple": 4077,
      "Pha": 4078,
      "Pent": 4079,
      "Pur": 4080,
      "Pho": 4081,
      "PLA": 4082,
      "Pla": 4083,
      "PUR": 4084,
      "Pers": 4085,
      "Pink": 4086,
      "Pite": 4087,
      "PRE": 4088,
      "Pass": 4089,
      "PLI": 4090,
      "Pati": 4091,
      "Pale": 4092,
      "PLE": 4093,
      "POSE": 4094,
      "Pitiful": 4095,
      "POSS": 4096,
      "QU": 4097,
      "Qu": 4098,
      "Que": 4099,
      "Ra": 4100,
      "Run": 4101,
      "RAP": 4102,
      "Rep": 4103,
      "Ref": 4104,
      "Rele": 4105,
      "Rest": 4106,
      "RACT": 4107,
      "Ridd": 4108,
      "Rather": 4109,
      "SU": 4110,
      "Si": 4111,
      "Sp": 4112,
      "Sin": 4113,
      "Sam": 4114,
      "Sound": 4115,
      "Salt": 4116,
      "Sure": 4117,
      "Spre": 4118,
      "Spe": 4119,
      "Sire": 4120,
      "Shot": 4121,
      "Spare": 4122,
      "Swits": 4123,
      "Span": 4124,
      "Saints": 4125,
      "SEND": 4126,
      "Sitting": 4127,
      "Te": 4128,
      "Ti": 4129,
      "Ton": 4130,
      "Tart": 4131,
      "Twould": 4132,
      "Ties": 4133,
      "TAL": 4134,
      "Tran": 4135,
      "Temp": 4136,
      "Time": 4137,
      "Torch": 4138,
      "Twixt": 4139,
      "Talk": 4140,
      "Ut": 4141,
      "Une": 4142,
      "USE": 4143,
      "UAL": 4144,
      "Utru": 4145,
      "UDING": 4146,
      "Vir": 4147,
      "Vile": 4148,
      "Vol": 4149,
      "Wh": 4150,
      "Wer": 4151,
      "Whis": 4152,
      "Wive": 4153,
      "Wast": 4154,
      "Wise": 4155,
      "WOR": 4156,
      "Whence": 4157,
      "Warm": 4158,
      "Whip": 4159,
      "Ye": 4160,
      "Yond": 4161,
      "_The": 4162,
      "_To": 4163,
      "_Enter": 4164,
      "_Juliet": 4165,
      "_Nurse": 4166,
      "_No": 4167,
      "_Be": 4168,
      "_Give": 4169,
      "_One": 4170,
      "_Dr": 4171,
      "_gives": 4172,
      "_Music": 4173,
      "_Des": 4174,
      "_Signior": 4175,
      "_Put": 4176,
      "_Play": 4177,
      "_stab": 4178,
      "_Going": 4179,
      "_Bre": 4180,
      "av": 4181,
      "ax": 4182,
      "athy": 4183,
      "afe": 4184,
      "alive": 4185,
      "aving": 4186,
      "aim": 4187,
      "ales": 4188,
      "afire": 4189,
      "aweary": 4190,
      "bb": 4191,
      "bin": 4192,
      "bor": 4193,
      "bar": 4194,
      "ben": 4195,
      "bat": 4196,
      "bon": 4197,
      "bent": 4198,
      "ball": 4199,
      "bly": 4200,
      "bap": 4201,
      "blet": 4202,
      "bout": 4203,
      "bac": 4204,
      "bak": 4205,
      "bounty": 4206,
      "bition": 4207,
      "bench": 4208,
      "blad": 4209,
      "bought": 4210,
      "books": 4211,
      "bating": 4212,
      "bale": 4213,
      "bide": 4214,
      "budge": 4215,
      "bau": 4216,
      "bakes": 4217,
      "bills": 4218,
      "cu": 4219,
      "cap": 4220,
      "cend": 4221,
      "cil": 4222,
      "cation": 4223,
      "card": 4224,
      "cree": 4225,
      "cage": 4226,
      "chast": 4227,
      "cough": 4228,
      "cund": 4229,
      "chap": 4230,
      "creet": 4231,
      "chaste": 4232,
      "cru": 4233,
      "cooks": 4234,
      "crows": 4235,
      "crown": 4236,
      "ccur": 4237,
      "cull": 4238,
      "cends": 4239,
      "cently": 4240,
      "custom": 4241,
      "cado": 4242,
      "cility": 4243,
      "cakes": 4244,
      "centio": 4245,
      "coward": 4246,
      "centre": 4247,
      "dan": 4248,
      "dit": 4249,
      "dir": 4250,
      "dain": 4251,
      "dart": 4252,
      "dra": 4253,
      "dic": 4254,
      "dine": 4255,
      "dame": 4256,
      "dates": 4257,
      "dust": 4258,
      "doff": 4259,
      "dition": 4260,
      "dling": 4261,
      "drows": 4262,
      "drown": 4263,
      "data": 4264,
      "eth": 4265,
      "ethe": 4266,
      "ech": 4267,
      "elo": 4268,
      "eag": 4269,
      "eight": 4270,
      "ema": 4271,
      "eks": 4272,
      "ement": 4273,
      "emb": 4274,
      "eats": 4275,
      "eign": 4276,
      "ebus": 4277,
      "ecut": 4278,
      "ecost": 4279,
      "evish": 4280,
      "email": 4281,
      "eem": 4282,
      "ebb": 4283,
      "fin": 4284,
      "fay": 4285,
      "fas": 4286,
      "fet": 4287,
      "fter": 4288,
      "fun": 4289,
      "fill": 4290,
      "fate": 4291,
      "fil": 4292,
      "frow": 4293,
      "foun": 4294,
      "fold": 4295,
      "flood": 4296,
      "ffle": 4297,
      "fling": 4298,
      "fidd": 4299,
      "fusion": 4300,
      "frank": 4301,
      "fantas": 4302,
      "fishes": 4303,
      "gor": 4304,
      "gar": 4305,
      "gli": 4306,
      "gad": 4307,
      "gion": 4308,
      "gun": 4309,
      "gour": 4310,
      "glove": 4311,
      "gap": 4312,
      "god": 4313,
      "gate": 4314,
      "gers": 4315,
      "game": 4316,
      "gure": 4317,
      "gown": 4318,
      "gloo": 4319,
      "gore": 4320,
      "gnat": 4321,
      "gory": 4322,
      "gidd": 4323,
      "gills": 4324,
      "gav": 4325,
      "hoo": 4326,
      "hark": 4327,
      "harm": 4328,
      "hooks": 4329,
      "humb": 4330,
      "hclout": 4331,
      "ili": 4332,
      "ict": 4333,
      "ido": 4334,
      "imu": 4335,
      "iers": 4336,
      "iance": 4337,
      "ips": 4338,
      "iently": 4339,
      "jaw": 4340,
      "jac": 4341,
      "jury": 4342,
      "judge": 4343,
      "kr": 4344,
      "ky": 4345,
      "kin": 4346,
      "knot": 4347,
      "kers": 4348,
      "kings": 4349,
      "kitch": 4350,
      "lp": 4351,
      "ler": 4352,
      "lis": 4353,
      "lat": 4354,
      "lon": 4355,
      "lur": 4356,
      "lour": 4357,
      "lap": 4358,
      "lath": 4359,
      "lks": 4360,
      "lure": 4361,
      "lance": 4362,
      "lish": 4363,
      "lars": 4364,
      "lful": 4365,
      "loud": 4366,
      "lings": 4367,
      "lves": 4368,
      "list": 4369,
      "leng": 4370,
      "lash": 4371,
      "lvish": 4372,
      "lamp": 4373,
      "mam": 4374,
      "mid": 4375,
      "maw": 4376,
      "mous": 4377,
      "mil": 4378,
      "mation": 4379,
      "mers": 4380,
      "mong": 4381,
      "moun": 4382,
      "mates": 4383,
      "mass": 4384,
      "mile": 4385,
      "mire": 4386,
      "mick": 4387,
      "midd": 4388,
      "ns": 4389,
      "nut": 4390,
      "nun": 4391,
      "nam": 4392,
      "nour": 4393,
      "nup": 4394,
      "nic": 4395,
      "nous": 4396,
      "nge": 4397,
      "nak": 4398,
      "natch": 4399,
      "nought": 4400,
      "nick": 4401,
      "nuts": 4402,
      "nip": 4403,
      "nthi": 4404,
      "narrow": 4405,
      "national": 4406,
      "os": 4407,
      "omy": 4408,
      "owe": 4409,
      "oke": 4410,
      "oard": 4411,
      "opy": 4412,
      "osi": 4413,
      "oper": 4414,
      "obey": 4415,
      "occur": 4416,
      "pto": 4417,
      "pome": 4418,
      "pir": 4419,
      "pter": 4420,
      "pup": 4421,
      "pant": 4422,
      "pate": 4423,
      "pep": 4424,
      "pta": 4425,
      "pry": 4426,
      "pink": 4427,
      "pars": 4428,
      "plu": 4429,
      "pig": 4430,
      "plate": 4431,
      "ppi": 4432,
      "piness": 4433,
      "punto": 4434,
      "poul": 4435,
      "pages": 4436,
      "pitch": 4437,
      "pagate": 4438,
      "pitiful": 4439,
      "que": 4440,
      "ris": 4441,
      "rand": 4442,
      "rit": 4443,
      "rent": 4444,
      "round": 4445,
      "rine": 4446,
      "rous": 4447,
      "rise": 4448,
      "rating": 4449,
      "rains": 4450,
      "rarch": 4451,
      "rash": 4452,
      "sof": 4453,
      "slo": 4454,
      "sco": 4455,
      "squ": 4456,
      "sack": 4457,
      "slu": 4458,
      "saf": 4459,
      "sway": 4460,
      "slack": 4461,
      "skins": 4462,
      "sore": 4463,
      "swall": 4464,
      "shot": 4465,
      "swits": 4466,
      "sallow": 4467,
      "sitting": 4468,
      "tit": 4469,
      "tas": 4470,
      "tall": 4471,
      "tun": 4472,
      "twill": 4473,
      "tue": 4474,
      "til": 4475,
      "tard": 4476,
      "tsi": 4477,
      "tish": 4478,
      "tche": 4479,
      "twere": 4480,
      "tua": 4481,
      "tarry": 4482,
      "tled": 4483,
      "tling": 4484,
      "tatter": 4485,
      "tles": 4486,
      "tents": 4487,
      "tetch": 4488,
      "tended": 4489,
      "tallow": 4490,
      "tten": 4491,
      "twixt": 4492,
      "uce": 4493,
      "uct": 4494,
      "uance": 4495,
      "uities": 4496,
      "ughs": 4497,
      "uised": 4498,
      "vill": 4499,
      "vage": 4500,
      "vast": 4501,
      "vity": 4502,
      "ws": 4503,
      "win": 4504,
      "wand": 4505,
      "wre": 4506,
      "wof": 4507,
      "wing": 4508,
      "wart": 4509,
      "wine": 4510,
      "wary": 4511,
      "whence": 4512,
      "whel": 4513,
      "whor": 4514,
      "whit": 4515,
      "winter": 4516,
      "wadd": 4517,
      "wounds": 4518,
      "wheels": 4519,
      "xor": 4520,
      "xes": 4521,
      "xter": 4522,
      "xity": 4523,
      "xts": 4524,
      "ximu": 4525,
      "yr": 4526,
      "ys": 4527,
      "yers": 4528,
      "yment": 4529,
      "yie": 4530,
      "yest": 4531,
      "ymous": 4532,
      "yoke": 4533,
      "zz": 4534,
      "zon": 4535,
      "zes": 4536,
      "—,": 4537,
      "’,": 4538,
      "’;": 4539,
      "thor": 4540,
      "thro": 4541,
      "thie": 4542,
      "thom": 4543,
      "thorn": 4544,
      "throws": 4545,
      "thinks": 4546,
      "thigh": 4547,
      "thwart": 4548,
      "eror": 4549,
      "erun": 4550,
      "erly": 4551,
      "ernight": 4552,
      "erage": 4553,
      "erper": 4554,
      "erced": 4555,
      "error": 4556,
      "ernal": 4557,
      "errand": 4558,
      "oup": 4559,
      "ino": 4560,
      "inch": 4561,
      "ines": 4562,
      "inco": 4563,
      "intr": 4564,
      "inite": 4565,
      "inac": 4566,
      "invo": 4567,
      "incomp": 4568,
      "ints": 4569,
      "inund": 4570,
      "infect": 4571,
      "incre": 4572,
      "instant": 4573,
      "inners": 4574,
      "inau": 4575,
      "indemn": 4576,
      "injur": 4577,
      "incorpor": 4578,
      "invalidity": 4579,
      "injuries": 4580,
      "ane": 4581,
      "anat": 4582,
      "anks": 4583,
      "anous": 4584,
      "anate": 4585,
      "aners": 4586,
      "aniz": 4587,
      "anmour": 4588,
      "thes": 4589,
      "theme": 4590,
      "isk": 4591,
      "issi": 4592,
      "isite": 4593,
      "ists": 4594,
      "issuing": 4595,
      "ora": 4596,
      "orb": 4597,
      "ors": 4598,
      "orison": 4599,
      "orious": 4600,
      "orative": 4601,
      "orced": 4602,
      "arp": 4603,
      "arse": 4604,
      "arent": 4605,
      "arith": 4606,
      "arms": 4607,
      "arrel": 4608,
      "armed": 4609,
      "arbit": 4610,
      "enc": 4611,
      "enjoy": 4612,
      "engro": 4613,
      "enpi": 4614,
      "enrich": 4615,
      "enjoin": 4616,
      "encam": 4617,
      "ensign": 4618,
      "enanmour": 4619,
      "atri": 4620,
      "atra": 4621,
      "atment": 4622,
      "atage": 4623,
      "atom": 4624,
      "atory": 4625,
      "attempt": 4626,
      "attire": 4627,
      "attainted": 4628,
      "attended": 4629,
      "onæ": 4630,
      "oned": 4631,
      "lled": 4632,
      "llous": 4633,
      "mew": 4634,
      "meas": 4635,
      "mete": 4636,
      "memor": 4637,
      "melan": 4638,
      "meagre": 4639,
      "sts": 4640,
      "stro": 4641,
      "sted": 4642,
      "stoo": 4643,
      "stic": 4644,
      "stif": 4645,
      "sters": 4646,
      "stage": 4647,
      "stable": 4648,
      "staf": 4649,
      "stark": 4650,
      "stint": 4651,
      "stud": 4652,
      "stair": 4653,
      "stains": 4654,
      "stumb": 4655,
      "stale": 4656,
      "stick": 4657,
      "stocc": 4658,
      "stakes": 4659,
      "toy": 4660,
      "toes": 4661,
      "toise": 4662,
      "tower": 4663,
      "andise": 4664,
      "sees": 4665,
      "sets": 4666,
      "separ": 4667,
      "sedu": 4668,
      "season": 4669,
      "seiz": 4670,
      "secure": 4671,
      "seeds": 4672,
      "reth": 4673,
      "rear": 4674,
      "rede": 4675,
      "reli": 4676,
      "recon": 4677,
      "requi": 4678,
      "reput": 4679,
      "refle": 4680,
      "ressed": 4681,
      "resort": 4682,
      "repose": 4683,
      "redistributing": 4684,
      "represent": 4685,
      "redistribution": 4686,
      "redistribute": 4687,
      "resid": 4688,
      "revenge": 4689,
      "resign": 4690,
      "redress": 4691,
      "remov": 4692,
      "retire": 4693,
      "revolt": 4694,
      "reclaim": 4695,
      "recently": 4696,
      "heat": 4697,
      "heare": 4698,
      "heap": 4699,
      "hetua": 4700,
      "hests": 4701,
      "lean": 4702,
      "leen": 4703,
      "leve": 4704,
      "least": 4705,
      "leans": 4706,
      "leful": 4707,
      "leaf": 4708,
      "legall": 4709,
      "leaving": 4710,
      "vey": 4711,
      "veful": 4712,
      "vember": 4713,
      "velling": 4714,
      "vellous": 4715,
      "wick": 4716,
      "widesp": 4717,
      "wilful": 4718,
      "noses": 4719,
      "nobly": 4720,
      "ingly": 4721,
      "itor": 4722,
      "itic": 4723,
      "itable": 4724,
      "itiff": 4725,
      "bel": 4726,
      "beet": 4727,
      "beck": 4728,
      "beho": 4729,
      "belove": 4730,
      "become": 4731,
      "beard": 4732,
      "begone": 4733,
      "besc": 4734,
      "betake": 4735,
      "becomes": 4736,
      "bewit": 4737,
      "behalf": 4738,
      "belov": 4739,
      "bells": 4740,
      "befits": 4741,
      "bepaint": 4742,
      "betossed": 4743,
      "bedeck": 4744,
      "behaviour": 4745,
      "behests": 4746,
      "hag": 4747,
      "hay": 4748,
      "haunt": 4749,
      "hael": 4750,
      "hams": 4751,
      "haught": 4752,
      "hallow": 4753,
      "haps": 4754,
      "hales": 4755,
      "younge": 4756,
      "ution": 4757,
      "utation": 4758,
      "uttish": 4759,
      "chat": 4760,
      "chur": 4761,
      "chine": 4762,
      "chop": 4763,
      "chio": 4764,
      "chinks": 4765,
      "chidd": 4766,
      "chpan": 4767,
      "roe": 4768,
      "roth": 4769,
      "roar": 4770,
      "rode": 4771,
      "rote": 4772,
      "rood": 4773,
      "roper": 4774,
      "rocks": 4775,
      "roote": 4776,
      "ropes": 4777,
      "rogue": 4778,
      "rotten": 4779,
      "deth": 4780,
      "delet": 4781,
      "deta": 4782,
      "desi": 4783,
      "defi": 4784,
      "deform": 4785,
      "decre": 4786,
      "depriv": 4787,
      "deflowered": 4788,
      "decree": 4789,
      "dexter": 4790,
      "liv": 4791,
      "liver": 4792,
      "limp": 4793,
      "lief": 4794,
      "liance": 4795,
      "liars": 4796,
      "libr": 4797,
      "lica": 4798,
      "liking": 4799,
      "liction": 4800,
      "lixity": 4801,
      "ceive": 4802,
      "cessed": 4803,
      "ceeding": 4804,
      "forgive": 4805,
      "forms": 4806,
      "forerun": 4807,
      "loins": 4808,
      "lolling": 4809,
      "loading": 4810,
      "herit": 4811,
      "heres": 4812,
      "heret": 4813,
      "herring": 4814,
      "wither": 4815,
      "asing": 4816,
      "asps": 4817,
      "asunder": 4818,
      "assure": 4819,
      "assail": 4820,
      "assemb": 4821,
      "asham": 4822,
      "aspir": 4823,
      "ribe": 4824,
      "rible": 4825,
      "ribed": 4826,
      "ripe": 4827,
      "riband": 4828,
      "ripen": 4829,
      "rides": 4830,
      "rigour": 4831,
      "adful": 4832,
      "addre": 4833,
      "added": 4834,
      "advers": 4835,
      "advis": 4836,
      "admi": 4837,
      "address": 4838,
      "adict": 4839,
      "adjac": 4840,
      "notes": 4841,
      "noted": 4842,
      "notif": 4843,
      "eson": 4844,
      "espe": 4845,
      "aly": 4846,
      "alter": 4847,
      "alus": 4848,
      "alder": 4849,
      "alities": 4850,
      "altern": 4851,
      "eton": 4852,
      "etite": 4853,
      "etition": 4854,
      "eternal": 4855,
      "ldings": 4856,
      "hated": 4857,
      "hatred": 4858,
      "edic": 4859,
      "educ": 4860,
      "entine": 4861,
      "entous": 4862,
      "enters": 4863,
      "entage": 4864,
      "entious": 4865,
      "hion": 4866,
      "hill": 4867,
      "hified": 4868,
      "hills": 4869,
      "hilding": 4870,
      "hibition": 4871,
      "hildings": 4872,
      "wean": 4873,
      "weal": 4874,
      "wever": 4875,
      "weigh": 4876,
      "weakest": 4877,
      "iring": 4878,
      "irrel": 4879,
      "ura": 4880,
      "urer": 4881,
      "urging": 4882,
      "MEDIES": 4883,
      "owes": 4884,
      "ags": 4885,
      "ager": 4886,
      "agin": 4887,
      "agent": 4888,
      "agile": 4889,
      "allig": 4890,
      "allied": 4891,
      "alliance": 4892,
      "kept": 4893,
      "keys": 4894,
      "cting": 4895,
      "cted": 4896,
      "ctory": 4897,
      "ctrine": 4898,
      "sober": 4899,
      "solace": 4900,
      "soled": 4901,
      "soles": 4902,
      "soonest": 4903,
      "solete": 4904,
      "unn": 4905,
      "unes": 4906,
      "unman": 4907,
      "unta": 4908,
      "unbr": 4909,
      "unlook": 4910,
      "unmade": 4911,
      "unsa": 4912,
      "unrest": 4913,
      "unfir": 4914,
      "unhappy": 4915,
      "unbound": 4916,
      "unru": 4917,
      "unkind": 4918,
      "uncover": 4919,
      "unseen": 4920,
      "unstain": 4921,
      "unwash": 4922,
      "unprotected": 4923,
      "unsatisfied": 4924,
      "unknown": 4925,
      "unsolic": 4926,
      "unworth": 4927,
      "unworthy": 4928,
      "unpleas": 4929,
      "unnatural": 4930,
      "unthankful": 4931,
      "uncing": 4932,
      "unlink": 4933,
      "unenforce": 4934,
      "unstuff": 4935,
      "uncharm": 4936,
      "unreasonable": 4937,
      "unfurnish": 4938,
      "unsubstantial": 4939,
      "unattainted": 4940,
      "unhallow": 4941,
      "unadvis": 4942,
      "worst": 4943,
      "Throw": 4944,
      "amour": 4945,
      "amers": 4946,
      "amity": 4947,
      "amatis": 4948,
      "ambus": 4949,
      "amended": 4950,
      "amerce": 4951,
      "ouring": 4952,
      "oursel": 4953,
      "ourge": 4954,
      "ourishes": 4955,
      "aining": 4956,
      "ained": 4957,
      "doing": 4958,
      "domin": 4959,
      "doves": 4960,
      "doting": 4961,
      "dozen": 4962,
      "doleful": 4963,
      "doctrine": 4964,
      "ENTI": 4965,
      "fell": 4966,
      "feet": 4967,
      "fema": 4968,
      "fears": 4969,
      "fester": 4970,
      "femin": 4971,
      "feits": 4972,
      "feign": 4973,
      "felon": 4974,
      "cker": 4975,
      "cket": 4976,
      "cklers": 4977,
      "ider": 4978,
      "idle": 4979,
      "idence": 4980,
      "idles": 4981,
      "idents": 4982,
      "verb": 4983,
      "verer": 4984,
      "verse": 4985,
      "vering": 4986,
      "veril": 4987,
      "vereign": 4988,
      "arell": 4989,
      "artif": 4990,
      "cot": 4991,
      "coil": 4992,
      "coated": 4993,
      "coach": 4994,
      "codes": 4995,
      "coals": 4996,
      "hole": 4997,
      "hoars": 4998,
      "holp": 4999,
      "manes": 5000,
      "manent": 5001,
      "manly": 5002,
      "mances": 5003,
      "mantle": 5004,
      "mangle": 5005,
      "manager": 5006,
      "wills": 5007,
      "willingly": 5008,
      "aps": 5009,
      "apper": 5010,
      "butt": 5011,
      "button": 5012,
      "butcher": 5013,
      "fade": 5014,
      "faster": 5015,
      "faction": 5016,
      "facility": 5017,
      "fathom": 5018,
      "shake": 5019,
      "shady": 5020,
      "lets": 5021,
      "letting": 5022,
      "berio": 5023,
      "berhyme": 5024,
      "hiss": 5025,
      "hist": 5026,
      "nel": 5027,
      "ney": 5028,
      "neth": 5029,
      "neither": 5030,
      "negle": 5031,
      "awaking": 5032,
      "SEQU": 5033,
      "shin": 5034,
      "shine": 5035,
      "shrun": 5036,
      "shore": 5037,
      "sharing": 5038,
      "shuts": 5039,
      "shining": 5040,
      "shanks": 5041,
      "shunn": 5042,
      "upy": 5043,
      "upturn": 5044,
      "updated": 5045,
      "upfill": 5046,
      "uprous": 5047,
      "teat": 5048,
      "teeth": 5049,
      "texts": 5050,
      "makers": 5051,
      "maximu": 5052,
      "masters": 5053,
      "machine": 5054,
      "spit": 5055,
      "sped": 5056,
      "spill": 5057,
      "spark": 5058,
      "spited": 5059,
      "spice": 5060,
      "spass": 5061,
      "spell": 5062,
      "spread": 5063,
      "spits": 5064,
      "sparing": 5065,
      "spires": 5066,
      "splend": 5067,
      "sprung": 5068,
      "spinners": 5069,
      "sparent": 5070,
      "spleen": 5071,
      "spheres": 5072,
      "spider": 5073,
      "usions": 5074,
      "usurer": 5075,
      "ARK": 5076,
      "Thee": 5077,
      "Their": 5078,
      "ects": 5079,
      "LAF": 5080,
      "Whate": 5081,
      "morous": 5082,
      "morsel": 5083,
      "sheet": 5084,
      "sheath": 5085,
      "sheathed": 5086,
      "shelves": 5087,
      "nowled": 5088,
      "outcry": 5089,
      "outdated": 5090,
      "comest": 5091,
      "rais": 5092,
      "race": 5093,
      "raid": 5094,
      "rail": 5095,
      "rakes": 5096,
      "endur": 5097,
      "endart": 5098,
      "endite": 5099,
      "ics": 5100,
      "icine": 5101,
      "icating": 5102,
      "ically": 5103,
      "lame": 5104,
      "labour": 5105,
      "laughs": 5106,
      "label": 5107,
      "sume": 5108,
      "suited": 5109,
      "suff": 5110,
      "suspect": 5111,
      "sunder": 5112,
      "sucking": 5113,
      "earthen": 5114,
      "coner": 5115,
      "conqu": 5116,
      "conven": 5117,
      "contag": 5118,
      "convo": 5119,
      "contra": 5120,
      "conclu": 5121,
      "consequ": 5122,
      "consor": 5123,
      "contributions": 5124,
      "constrains": 5125,
      "condemned": 5126,
      "constable": 5127,
      "convey": 5128,
      "conspires": 5129,
      "consume": 5130,
      "Toge": 5131,
      "mumb": 5132,
      "muff": 5133,
      "Produ": 5134,
      "Prodig": 5135,
      "Proportion": 5136,
      "abus": 5137,
      "abound": 5138,
      "abide": 5139,
      "abbey": 5140,
      "aboard": 5141,
      "moans": 5142,
      "mocker": 5143,
      "mpet": 5144,
      "mpathy": 5145,
      "inexor": 5146,
      "cancell": 5147,
      "cannon": 5148,
      "canopy": 5149,
      "disk": 5150,
      "disper": 5151,
      "dislike": 5152,
      "distre": 5153,
      "dispar": 5154,
      "disput": 5155,
      "distra": 5156,
      "dischar": 5157,
      "dishonour": 5158,
      "dismember": 5159,
      "dispose": 5160,
      "discer": 5161,
      "disgu": 5162,
      "disgrace": 5163,
      "displeasure": 5164,
      "dishonourable": 5165,
      "dispra": 5166,
      "dissemb": 5167,
      "displeas": 5168,
      "discontinue": 5169,
      "discreet": 5170,
      "dishclout": 5171,
      "nights": 5172,
      "RICT": 5173,
      "RIGH": 5174,
      "odic": 5175,
      "easter": 5176,
      "erel": 5177,
      "atest": 5178,
      "atefully": 5179,
      "ulty": 5180,
      "ulating": 5181,
      "indire": 5182,
      "indicate": 5183,
      "indicating": 5184,
      "CEMENT": 5185,
      "CEPT": 5186,
      "eping": 5187,
      "goals": 5188,
      "ilation": 5189,
      "alty": 5190,
      "marr": 5191,
      "margent": 5192,
      "marvellous": 5193,
      "marchpan": 5194,
      "pox": 5195,
      "pois": 5196,
      "poper": 5197,
      "pots": 5198,
      "poster": 5199,
      "points": 5200,
      "takes": 5201,
      "taker": 5202,
      "tavern": 5203,
      "tackled": 5204,
      "tasted": 5205,
      "Forgive": 5206,
      "Forbid": 5207,
      "Forget": 5208,
      "Forswear": 5209,
      "deathbed": 5210,
      "proble": 5211,
      "provo": 5212,
      "prostr": 5213,
      "process": 5214,
      "proves": 5215,
      "prolog": 5216,
      "progress": 5217,
      "proportion": 5218,
      "propagate": 5219,
      "prolixity": 5220,
      "proceeding": 5221,
      "prohibition": 5222,
      "proverb": 5223,
      "quit": 5224,
      "quet": 5225,
      "quence": 5226,
      "quince": 5227,
      "quake": 5228,
      "quering": 5229,
      "quote": 5230,
      "quisite": 5231,
      "qualities": 5232,
      "trunk": 5233,
      "goodly": 5234,
      "goodman": 5235,
      "wot": 5236,
      "wolvish": 5237,
      "ards": 5238,
      "sels": 5239,
      "selmo": 5240,
      "amed": 5241,
      "thereof": 5242,
      "therewithal": 5243,
      "tian": 5244,
      "tithe": 5245,
      "tide": 5246,
      "tice": 5247,
      "tial": 5248,
      "tips": 5249,
      "tigers": 5250,
      "tipto": 5251,
      "MERCHANT": 5252,
      "saying": 5253,
      "Tybalts": 5254,
      "iest": 5255,
      "seest": 5256,
      "seeks": 5257,
      "venue": 5258,
      "onging": 5259,
      "thens": 5260,
      "forehead": 5261,
      "forefather": 5262,
      "foreign": 5263,
      "sometimes": 5264,
      "usest": 5265,
      "tool": 5266,
      "reels": 5267,
      "reeky": 5268,
      "ageous": 5269,
      "agement": 5270,
      "prest": 5271,
      "prepar": 5272,
      "preserve": 5273,
      "previous": 5274,
      "preserving": 5275,
      "prefix": 5276,
      "prevail": 5277,
      "predic": 5278,
      "predomin": 5279,
      "Myself": 5280,
      "geon": 5281,
      "geous": 5282,
      "gelica": 5283,
      "eyele": 5284,
      "menace": 5285,
      "board": 5286,
      "boister": 5287,
      "bodes": 5288,
      "boxes": 5289,
      "pyright": 5290,
      "hyper": 5291,
      "hymn": 5292,
      "timeless": 5293,
      "West": 5294,
      "Weeping": 5295,
      "swears": 5296,
      "tying": 5297,
      "tyran": 5298,
      "types": 5299,
      "musty": 5300,
      "Noble": 5301,
      "November": 5302,
      "six": 5303,
      "sigh": 5304,
      "exil": 5305,
      "excess": 5306,
      "export": 5307,
      "excl": 5308,
      "expi": 5309,
      "except": 5310,
      "express": 5311,
      "exposition": 5312,
      "extent": 5313,
      "experi": 5314,
      "execut": 5315,
      "exists": 5316,
      "exhales": 5317,
      "exquisite": 5318,
      "theirs": 5319,
      "ordained": 5320,
      "lightly": 5321,
      "lightness": 5322,
      "lightens": 5323,
      "ladyship": 5324,
      "ladybird": 5325,
      "older": 5326,
      "pering": 5327,
      "pered": 5328,
      "peruse": 5329,
      "perfection": 5330,
      "perjur": 5331,
      "perjuries": 5332,
      "perjury": 5333,
      "pernic": 5334,
      "perverse": 5335,
      "permanent": 5336,
      "acknowled": 5337,
      "efice": 5338,
      "effemin": 5339,
      "Thisbe": 5340,
      "Friends": 5341,
      "party": 5342,
      "parted": 5343,
      "partly": 5344,
      "parties": 5345,
      "bleeds": 5346,
      "blessing": 5347,
      "misty": 5348,
      "mistre": 5349,
      "misapp": 5350,
      "misgives": 5351,
      "mischance": 5352,
      "mistemper": 5353,
      "misadvent": 5354,
      "misterm": 5355,
      "mischie": 5356,
      "misshaped": 5357,
      "via": 5358,
      "vio": 5359,
      "videth": 5360,
      "victory": 5361,
      "ancestor": 5362,
      "hasty": 5363,
      "hasten": 5364,
      "hastes": 5365,
      "Stuff": 5366,
      "prince": 5367,
      "print": 5368,
      "prud": 5369,
      "prating": 5370,
      "prouds": 5371,
      "pronounce": 5372,
      "princo": 5373,
      "orts": 5374,
      "likely": 5375,
      "Inherit": 5376,
      "untalk": 5377,
      "untangled": 5378,
      "Italy": 5379,
      "elf": 5380,
      "eling": 5381,
      "wherein": 5382,
      "whereon": 5383,
      "inkle": 5384,
      "lowering": 5385,
      "handsome": 5386,
      "tries": 5387,
      "tried": 5388,
      "trick": 5389,
      "trifling": 5390,
      "whoe": 5391,
      "whenever": 5392,
      "Ask": 5393,
      "Ascend": 5394,
      "Dove": 5395,
      "Doing": 5396,
      "Doting": 5397,
      "ache": 5398,
      "acquaint": 5399,
      "accessed": 5400,
      "mson": 5401,
      "oping": 5402,
      "oppos": 5403,
      "opposition": 5404,
      "opposed": 5405,
      "opatra": 5406,
      "void": 5407,
      "vowel": 5408,
      "sweeter": 5409,
      "sweeten": 5410,
      "sweeting": 5411,
      "sweetly": 5412,
      "sweetmeats": 5413,
      "THOSE": 5414,
      "THING": 5415,
      "cio": 5416,
      "cile": 5417,
      "cient": 5418,
      "cially": 5419,
      "derive": 5420,
      "derived": 5421,
      "jocund": 5422,
      "essor": 5423,
      "Beg": 5424,
      "Beat": 5425,
      "Before": 5426,
      "Begot": 5427,
      "Believe": 5428,
      "Beguil": 5429,
      "righteous": 5430,
      "ALUS": 5431,
      "file": 5432,
      "files": 5433,
      "fices": 5434,
      "fierce": 5435,
      "figure": 5436,
      "hearted": 5437,
      "heartless": 5438,
      "heartsick": 5439,
      "bedau": 5440,
      "Whereto": 5441,
      "Wherefore": 5442,
      "bred": 5443,
      "bread": 5444,
      "breaks": 5445,
      "breaches": 5446,
      "cheers": 5447,
      "checks": 5448,
      "cheering": 5449,
      "cheveril": 5450,
      "scur": 5451,
      "scare": 5452,
      "scant": 5453,
      "scars": 5454,
      "score": 5455,
      "scrap": 5456,
      "scatter": 5457,
      "scathe": 5458,
      "scales": 5459,
      "scribe": 5460,
      "scourge": 5461,
      "livest": 5462,
      "lively": 5463,
      "aken": 5464,
      "complain": 5465,
      "compass": 5466,
      "compounds": 5467,
      "compressed": 5468,
      "compilation": 5469,
      "Howlings": 5470,
      "Soon": 5471,
      "Sole": 5472,
      "Sojour": 5473,
      "Sovereign": 5474,
      "brine": 5475,
      "brought": 5476,
      "bragg": 5477,
      "brush": 5478,
      "brisk": 5479,
      "brags": 5480,
      "backs": 5481,
      "drous": 5482,
      "drum": 5483,
      "drinks": 5484,
      "drudge": 5485,
      "fume": 5486,
      "furious": 5487,
      "Order": 5488,
      "Unhappy": 5489,
      "Uncle": 5490,
      "Unplag": 5491,
      "Unworthy": 5492,
      "Unseem": 5493,
      "Unwield": 5494,
      "Uncomfortable": 5495,
      "Unfold": 5496,
      "housewife": 5497,
      "iot": 5498,
      "heavenly": 5499,
      "looked": 5500,
      "Offic": 5501,
      "bankr": 5502,
      "banquet": 5503,
      "lawyers": 5504,
      "wring": 5505,
      "wrench": 5506,
      "formats": 5507,
      "tributary": 5508,
      "caitiff": 5509,
      "psy": 5510,
      "pson": 5511,
      "tsy": 5512,
      "tread": 5513,
      "trees": 5514,
      "treach": 5515,
      "treasure": 5516,
      "treason": 5517,
      "treading": 5518,
      "treads": 5519,
      "treatment": 5520,
      "trespass": 5521,
      "angers": 5522,
      "angry": 5523,
      "stranger": 5524,
      "strangled": 5525,
      "stratage": 5526,
      "strangers": 5527,
      "liege": 5528,
      "Anton": 5529,
      "Anselmo": 5530,
      "Angelica": 5531,
      "Ancient": 5532,
      "IRS": 5533,
      "dial": 5534,
      "died": 5535,
      "divers": 5536,
      "divis": 5537,
      "divideth": 5538,
      "Scaring": 5539,
      "affray": 5540,
      "affright": 5541,
      "affli": 5542,
      "afraid": 5543,
      "gracious": 5544,
      "gravity": 5545,
      "headstrong": 5546,
      "lesser": 5547,
      "lessen": 5548,
      "lessly": 5549,
      "dearer": 5550,
      "AGRAP": 5551,
      "Mercy": 5552,
      "REFUND": 5553,
      "REPLA": 5554,
      "REMEDIES": 5555,
      "STRICT": 5556,
      "dreadful": 5557,
      "gressing": 5558,
      "greatest": 5559,
      "keeper": 5560,
      "keepers": 5561,
      "PARAGRAP": 5562,
      "estate": 5563,
      "esteem": 5564,
      "henceforth": 5565,
      "madly": 5566,
      "madness": 5567,
      "lacement": 5568,
      "finding": 5569,
      "serves": 5570,
      "serious": 5571,
      "fortnight": 5572,
      "fortunes": 5573,
      "quivers": 5574,
      "quivering": 5575,
      "Shame": 5576,
      "Shake": 5577,
      "Shalt": 5578,
      "bids": 5579,
      "counts": 5580,
      "countries": 5581,
      "foes": 5582,
      "folks": 5583,
      "griping": 5584,
      "peevish": 5585,
      "sale": 5586,
      "sauce": 5587,
      "savage": 5588,
      "wayward": 5589,
      "lical": 5590,
      "commer": 5591,
      "commission": 5592,
      "committed": 5593,
      "moves": 5594,
      "moveth": 5595,
      "markman": 5596,
      "friar": 5597,
      "grass": 5598,
      "grudge": 5599,
      "group": 5600,
      "granate": 5601,
      "gratefully": 5602,
      "parentage": 5603,
      "paramour": 5604,
      "thinking": 5605,
      "oudy": 5606,
      "settled": 5607,
      "rests": 5608,
      "restorative": 5609,
      "helor": 5610,
      "fearfully": 5611,
      "south": 5612,
      "sententious": 5613,
      "intend": 5614,
      "intended": 5615,
      "begun": 5616,
      "younger": 5617,
      "dedicate": 5618,
      "deduct": 5619,
      "childish": 5620,
      "childhood": 5621,
      "friendly": 5622,
      "friendship": 5623,
      "Arms": 5624,
      "courageous": 5625,
      "denied": 5626,
      "denote": 5627,
      "flowed": 5628,
      "puts": 5629,
      "putt": 5630,
      "putting": 5631,
      "runn": 5632,
      "runs": 5633,
      "runaway": 5634,
      "runagate": 5635,
      "lacks": 5636,
      "earthquake": 5637,
      "donation": 5638,
      "donors": 5639,
      "downright": 5640,
      "downloading": 5641,
      "fallen": 5642,
      "ignor": 5643,
      "iguities": 5644,
      "iced": 5645,
      "offence": 5646,
      "offers": 5647,
      "happi": 5648,
      "happiness": 5649,
      "asking": 5650,
      "needly": 5651,
      "needful": 5652,
      "dreamers": 5653,
      "CIDEN": 5654,
      "Very": 5655,
      "ducats": 5656,
      "omit": 5657,
      "pleading": 5658,
      "sounds": 5659,
      "traff": 5660,
      "traces": 5661,
      "traitor": 5662,
      "vaulty": 5663,
      "warning": 5664,
      "warns": 5665,
      "angel": 5666,
      "angels": 5667,
      "angelical": 5668,
      "faithfully": 5669,
      "Petru": 5670,
      "Petrarch": 5671,
      "monster": 5672,
      "monarch": 5673,
      "playing": 5674,
      "sunset": 5675,
      "relations": 5676,
      "beautify": 5677,
      "charities": 5678,
      "charges": 5679,
      "charitable": 5680,
      "charnel": 5681,
      "chariot": 5682,
      "cession": 5683,
      "showering": 5684,
      "breaths": 5685,
      "Benedic": 5686,
      "Read": 5687,
      "Ready": 5688,
      "Remn": 5689,
      "Remember": 5690,
      "Rebell": 5691,
      "Revive": 5692,
      "Revolt": 5693,
      "Rebeck": 5694,
      "Receive": 5695,
      "Revenue": 5696,
      "cloak": 5697,
      "closet": 5698,
      "clothes": 5699,
      "club": 5700,
      "clubs": 5701,
      "osed": 5702,
      "torn": 5703,
      "torments": 5704,
      "tortoise": 5705,
      "yellow": 5706,
      "issing": 5707,
      "issue": 5708,
      "reads": 5709,
      "reading": 5710,
      "bearer": 5711,
      "bearing": 5712,
      "bearers": 5713,
      "despite": 5714,
      "despatch": 5715,
      "despised": 5716,
      "Noting": 5717,
      "imagin": 5718,
      "ption": 5719,
      "privy": 5720,
      "pricks": 5721,
      "pricking": 5722,
      "portly": 5723,
      "portentous": 5724,
      "twist": 5725,
      "twinkle": 5726,
      "steep": 5727,
      "stealth": 5728,
      "steeds": 5729,
      "steals": 5730,
      "steads": 5731,
      "steerage": 5732,
      "version": 5733,
      "versity": 5734,
      "apply": 5735,
      "appetite": 5736,
      "apparell": 5737,
      "quarter": 5738,
      "gentlemanlike": 5739,
      "newsletter": 5740,
      "draws": 5741,
      "drawer": 5742,
      "follows": 5743,
      "follower": 5744,
      "talked": 5745,
      "Madman": 5746,
      "aching": 5747,
      "clasps": 5748,
      "claps": 5749,
      "cloudy": 5750,
      "lately": 5751,
      "rancour": 5752,
      "sinners": 5753,
      "sends": 5754,
      "bestride": 5755,
      "bestrides": 5756,
      "sooner": 5757,
      "undertake": 5758,
      "understand": 5759,
      "Alla": 5760,
      "Hero": 5761,
      "Herself": 5762,
      "Holding": 5763,
      "Service": 5764,
      "broken": 5765,
      "bounds": 5766,
      "boundless": 5767,
      "create": 5768,
      "creation": 5769,
      "credit": 5770,
      "cordial": 5771,
      "gerhead": 5772,
      "grove": 5773,
      "groaning": 5774,
      "minion": 5775,
      "minded": 5776,
      "minim": 5777,
      "minister": 5778,
      "north": 5779,
      "push": 5780,
      "pursu": 5781,
      "purge": 5782,
      "purple": 5783,
      "purblind": 5784,
      "pursuing": 5785,
      "purchase": 5786,
      "smatter": 5787,
      "sleeping": 5788,
      "include": 5789,
      "includes": 5790,
      "masterless": 5791,
      "murdered": 5792,
      "ACTUAL": 5793,
      "LIGENCE": 5794,
      "bodies": 5795,
      "empire": 5796,
      "emperor": 5797,
      "freezes": 5798,
      "plats": 5799,
      "plants": 5800,
      "penury": 5801,
      "pencil": 5802,
      "penalty": 5803,
      "rules": 5804,
      "salute": 5805,
      "salutation": 5806,
      "tongues": 5807,
      "turning": 5808,
      "visage": 5809,
      "xture": 5810,
      "statements": 5811,
      "recepta": 5812,
      "learning": 5813,
      "confounds": 5814,
      "confines": 5815,
      "confidence": 5816,
      "confusions": 5817,
      "sides": 5818,
      "accessible": 5819,
      "writes": 5820,
      "comforted": 5821,
      "flowering": 5822,
      "warranties": 5823,
      "CONSEQU": 5824,
      "evening": 5825,
      "everyone": 5826,
      "everything": 5827,
      "fleer": 5828,
      "fleckled": 5829,
      "kindly": 5830,
      "ladder": 5831,
      "pipes": 5832,
      "passage": 5833,
      "pardoning": 5834,
      "ringement": 5835,
      "supple": 5836,
      "supposed": 5837,
      "organiz": 5838,
      "armour": 5839,
      "meddle": 5840,
      "medlar": 5841,
      "medlars": 5842,
      "medicine": 5843,
      "vessels": 5844,
      "deeds": 5845,
      "Thank": 5846,
      "truce": 5847,
      "truckle": 5848,
      "trumpet": 5849,
      "bringing": 5850,
      "footed": 5851,
      "quarrels": 5852,
      "Drink": 5853,
      "Dramatis": 5854,
      "North": 5855,
      "Once": 5856,
      "bump": 5857,
      "bucklers": 5858,
      "corrupt": 5859,
      "fares": 5860,
      "knit": 5861,
      "overset": 5862,
      "overheard": 5863,
      "overthrown": 5864,
      "overwhel": 5865,
      "overthrows": 5866,
      "promise": 5867,
      "prompt": 5868,
      "promised": 5869,
      "prompter": 5870,
      "sadly": 5871,
      "meeting": 5872,
      "stirring": 5873,
      "stirreth": 5874,
      "advise": 5875,
      "hideous": 5876,
      "highway": 5877,
      "highmost": 5878,
      "sociable": 5879,
      "society": 5880,
      "covert": 5881,
      "tempest": 5882,
      "submission": 5883,
      "subscribe": 5884,
      "sickness": 5885,
      "ABILITY": 5886,
      "INCL": 5887,
      "INCIDEN": 5888,
      "Updated": 5889,
      "clears": 5890,
      "cleft": 5891,
      "damage": 5892,
      "damaged": 5893,
      "fighting": 5894,
      "horrible": 5895,
      "izans": 5896,
      "impati": 5897,
      "impute": 5898,
      "impeach": 5899,
      "implied": 5900,
      "imposed": 5901,
      "minds": 5902,
      "obsolete": 5903,
      "obscur": 5904,
      "throughout": 5905,
      "ancial": 5906,
      "meaning": 5907,
      "meanest": 5908,
      "mediately": 5909,
      "nobleman": 5910,
      "entertain": 5911,
      "fellowship": 5912,
      "special": 5913,
      "speech": 5914,
      "thankings": 5915,
      "Staying": 5916,
      "joiner": 5917,
      "returns": 5918,
      "torchbearer": 5919,
      "learns": 5920,
      "learnt": 5921,
      "Consort": 5922,
      "Contact": 5923,
      "Contempt": 5924,
      "Content": 5925,
      "Contributions": 5926,
      "Condemned": 5927,
      "Confusion": 5928,
      "Contents": 5929,
      "Dead": 5930,
      "Hist": 5931,
      "Henceforth": 5932,
      "Sections": 5933,
      "acts": 5934,
      "acting": 5935,
      "acted": 5936,
      "action": 5937,
      "burns": 5938,
      "couch": 5939,
      "cried": 5940,
      "cricket": 5941,
      "crimson": 5942,
      "curate": 5943,
      "curtain": 5944,
      "curtains": 5945,
      "curfew": 5946,
      "current": 5947,
      "curtsi": 5948,
      "curtsy": 5949,
      "chambermaids": 5950,
      "darkness": 5951,
      "hurry": 5952,
      "hurdle": 5953,
      "hoods": 5954,
      "hoodwink": 5955,
      "maintaining": 5956,
      "pastry": 5957,
      "singer": 5958,
      "singleness": 5959,
      "sorted": 5960,
      "wail": 5961,
      "wailing": 5962,
      "waverer": 5963,
      "isters": 5964,
      "ensuring": 5965,
      "tombs": 5966,
      "locations": 5967,
      "associate": 5968,
      "feeling": 5969,
      "nearly": 5970,
      "shriv": 5971,
      "shriek": 5972,
      "shrieks": 5973,
      "shortly": 5974,
      "spokes": 5975,
      "spoken": 5976,
      "preted": 5977,
      "AGEDY": 5978,
      "Seeking": 5979,
      "Alone": 5980,
      "Although": 5981,
      "Calling": 5982,
      "Didst": 5983,
      "PROVI": 5984,
      "Retain": 5985,
      "Return": 5986,
      "Retorts": 5987,
      "Subt": 5988,
      "Suspect": 5989,
      "Turning": 5990,
      "Wash": 5991,
      "bliss": 5992,
      "blisters": 5993,
      "bowl": 5994,
      "bower": 5995,
      "busy": 5996,
      "cram": 5997,
      "critic": 5998,
      "cutt": 5999,
      "cutting": 6000,
      "careful": 6001,
      "carelessly": 6002,
      "cures": 6003,
      "crystal": 6004,
      "drier": 6005,
      "dried": 6006,
      "driveth": 6007,
      "drizz": 6008,
      "drivelling": 6009,
      "girls": 6010,
      "homely": 6011,
      "jests": 6012,
      "paly": 6013,
      "satisfaction": 6014,
      "whiles": 6015,
      "interr": 6016,
      "interest": 6017,
      "interchang": 6018,
      "interrupt": 6019,
      "intercession": 6020,
      "interpreted": 6021,
      "metic": 6022,
      "strive": 6023,
      "region": 6024,
      "regulating": 6025,
      "limit": 6026,
      "limits": 6027,
      "addle": 6028,
      "unteers": 6029,
      "collar": 6030,
      "collars": 6031,
      "colliers": 6032,
      "coldly": 6033,
      "taxes": 6034,
      "simples": 6035,
      "simpleness": 6036,
      "excus": 6037,
      "accent": 6038,
      "accident": 6039,
      "accidents": 6040,
      "licensed": 6041,
      "closely": 6042,
      "Drawn": 6043,
      "honesty": 6044,
      "honestly": 6045,
      "countervail": 6046,
      "counterfeits": 6047,
      "Canker": 6048,
      "Livia": 6049,
      "Methinks": 6050,
      "Shut": 6051,
      "Shuts": 6052,
      "Sharp": 6053,
      "Sweethe": 6054,
      "Speakest": 6055,
      "Watchmen": 6056,
      "_Kisses": 6057,
      "_Kissing": 6058,
      "blame": 6059,
      "blades": 6060,
      "blaze": 6061,
      "blazon": 6062,
      "brightness": 6063,
      "calamity": 6064,
      "double": 6065,
      "doublet": 6066,
      "dared": 6067,
      "dateless": 6068,
      "flag": 6069,
      "flint": 6070,
      "flask": 6071,
      "flourishes": 6072,
      "gued": 6073,
      "guide": 6074,
      "hanging": 6075,
      "hanged": 6076,
      "phantas": 6077,
      "pilcher": 6078,
      "slowly": 6079,
      "slays": 6080,
      "virus": 6081,
      "vironed": 6082,
      "vows": 6083,
      "walks": 6084,
      "walking": 6085,
      "wooes": 6086,
      "arrives": 6087,
      "stained": 6088,
      "stainless": 6089,
      "searchers": 6090,
      "beaten": 6091,
      "chances": 6092,
      "herself_": 6093,
      "ambling": 6094,
      "ambiguities": 6095,
      "hopes": 6096,
      "hopeful": 6097,
      "hoppers": 6098,
      "summers": 6099,
      "consents": 6100,
      "displayed": 6101,
      "washing": 6102,
      "voices": 6103,
      "volunteer": 6104,
      "ciousness": 6105,
      "compliment": 6106,
      "compliments": 6107,
      "servants": 6108,
      "maidenheads": 6109,
      "maidenhoods": 6110,
      "beginning": 6111,
      "beginners": 6112,
      "brotherhood": 6113,
      "powerful": 6114,
      "excuses": 6115,
      "numbers": 6116,
      "Adding": 6117,
      "Addition": 6118,
      "Adversity": 6119,
      "Chris": 6120,
      "Father": 6121,
      "Gentlewomen": 6122,
      "Miscarri": 6123,
      "NOTI": 6124,
      "Younger": 6125,
      "blubbering": 6126,
      "chaos": 6127,
      "crossing": 6128,
      "crotche": 6129,
      "crave": 6130,
      "cracking": 6131,
      "carries": 6132,
      "carriage": 6133,
      "dowdy": 6134,
      "jewel": 6135,
      "lineament": 6136,
      "occupy": 6137,
      "renown": 6138,
      "renamed": 6139,
      "swifter": 6140,
      "senses": 6141,
      "senseless": 6142,
      "viewed": 6143,
      "whore": 6144,
      "whining": 6145,
      "wondrous": 6146,
      "attends": 6147,
      "attending": 6148,
      "statue": 6149,
      "stopp": 6150,
      "severing": 6151,
      "severity": 6152,
      "severest": 6153,
      "reply": 6154,
      "repliest": 6155,
      "repetition": 6156,
      "hairs": 6157,
      "choly": 6158,
      "choking": 6159,
      "devout": 6160,
      "devouring": 6161,
      "descent": 6162,
      "descry": 6163,
      "described": 6164,
      "wearied": 6165,
      "weaker": 6166,
      "testify": 6167,
      "spirits": 6168,
      "moonshine": 6169,
      "possessed": 6170,
      "trusty": 6171,
      "expend": 6172,
      "expects": 6173,
      "violence": 6174,
      "violates": 6175,
      "violently": 6176,
      "Stands": 6177,
      "brawling": 6178,
      "affecting": 6179,
      "affection": 6180,
      "beggars": 6181,
      "beggary": 6182,
      "briefly": 6183,
      "smallest": 6184,
      "smilest": 6185,
      "plagues": 6186,
      "burial": 6187,
      "knaves": 6188,
      "birds": 6189,
      "damnation": 6190,
      "speedy": 6191,
      "speeding": 6192,
      "paperwork": 6193,
      "000": 6194,
      "Comfort": 6195,
      "Despite": 6196,
      "FORE": 6197,
      "However": 6198,
      "Hadst": 6199,
      "News": 6200,
      "_Retiring": 6201,
      "augment": 6202,
      "burneth": 6203,
      "barefoot": 6204,
      "brace": 6205,
      "burying": 6206,
      "circle": 6207,
      "camore": 6208,
      "cupboard": 6209,
      "dined": 6210,
      "dwells": 6211,
      "elder": 6212,
      "falconer": 6213,
      "faintly": 6214,
      "given": 6215,
      "gainst": 6216,
      "lenten": 6217,
      "matron": 6218,
      "masks": 6219,
      "nonproprietary": 6220,
      "nonymous": 6221,
      "painter": 6222,
      "prais": 6223,
      "pulse": 6224,
      "puling": 6225,
      "pieces": 6226,
      "sluttish": 6227,
      "swan": 6228,
      "swung": 6229,
      "swounded": 6230,
      "swamp": 6231,
      "smell": 6232,
      "smelt": 6233,
      "smelling": 6234,
      "smells": 6235,
      "soften": 6236,
      "tlements": 6237,
      "vainly": 6238,
      "thinly": 6239,
      "infant": 6240,
      "infold": 6241,
      "infinite": 6242,
      "infringement": 6243,
      "stored": 6244,
      "starv": 6245,
      "starve": 6246,
      "starveth": 6247,
      "startles": 6248,
      "reverse": 6249,
      "reverso": 6250,
      "reverend": 6251,
      "reverence": 6252,
      "remedies": 6253,
      "remaining": 6254,
      "respects": 6255,
      "respective": 6256,
      "beasts": 6257,
      "changes": 6258,
      "royalty": 6259,
      "deceit": 6260,
      "deceas": 6261,
      "deceiv": 6262,
      "deceived": 6263,
      "departed": 6264,
      "lodge": 6265,
      "lodges": 6266,
      "logy": 6267,
      "logic": 6268,
      "loggerhead": 6269,
      "westward": 6270,
      "solicitation": 6271,
      "unclean": 6272,
      "cockatri": 6273,
      "cockerel": 6274,
      "shrine": 6275,
      "shared": 6276,
      "sharps": 6277,
      "contradict": 6278,
      "conduit": 6279,
      "consorts": 6280,
      "consorted": 6281,
      "abroach": 6282,
      "distance": 6283,
      "odds": 6284,
      "oddly": 6285,
      "gossips": 6286,
      "gossamers": 6287,
      "proofread": 6288,
      "prevented": 6289,
      "signal": 6290,
      "signify": 6291,
      "ANYTHING": 6292,
      "profit": 6293,
      "profess": 6294,
      "profits": 6295,
      "profane": 6296,
      "accepting": 6297,
      "cheerly": 6298,
      "cheerful": 6299,
      "scarf": 6300,
      "scarce": 6301,
      "wronged": 6302,
      "anguish": 6303,
      "divining": 6304,
      "divorced": 6305,
      "direful": 6306,
      "direction": 6307,
      "directly": 6308,
      "affords": 6309,
      "sails": 6310,
      "warmth": 6311,
      "appearing": 6312,
      "receiving": 6313,
      "importun": 6314,
      "important": 6315,
      "wantons": 6316,
      "wretchedness": 6317,
      "additions": 6318,
      "virtues": 6319,
      "thrusts": 6320,
      "Churchyard": 6321,
      "blushing": 6322,
      "viewing": 6323,
      "possession": 6324,
      "bawdy": 6325,
      "hundreds": 6326,
      "touching": 6327,
      "1500": 6328,
      "1513": 6329,
      "1541": 6330,
      "Blind": 6331,
      "Bliss": 6332,
      "Blister": 6333,
      "Copyright": 6334,
      "Dian": 6335,
      "Dido": 6336,
      "Digressing": 6337,
      "DISCLA": 6338,
      "Gallop": 6339,
      "Jacks": 6340,
      "NDATION": 6341,
      "PGLAF": 6342,
      "Parting": 6343,
      "Partizans": 6344,
      "Trust": 6345,
      "_Draws": 6346,
      "buds": 6347,
      "catcher": 6348,
      "climbs": 6349,
      "drops": 6350,
      "famili": 6351,
      "frighted": 6352,
      "frowns": 6353,
      "gleek": 6354,
      "harsh": 6355,
      "hinds": 6356,
      "juiced": 6357,
      "journey": 6358,
      "lenity": 6359,
      "mix": 6360,
      "mixture": 6361,
      "mandrakes": 6362,
      "nyas": 6363,
      "pinion": 6364,
      "porter": 6365,
      "packthread": 6366,
      "rattling": 6367,
      "skains": 6368,
      "sympathy": 6369,
      "sycamore": 6370,
      "synonymous": 6371,
      "shift": 6372,
      "shield": 6373,
      "shirt": 6374,
      "surcease": 6375,
      "survive": 6376,
      "surgeon": 6377,
      "shoema": 6378,
      "smock": 6379,
      "trooping": 6380,
      "vanish": 6381,
      "voury": 6382,
      "watery": 6383,
      "winking": 6384,
      "thrive": 6385,
      "thrice": 6386,
      "thrills": 6387,
      "third": 6388,
      "meantime": 6389,
      "messages": 6390,
      "stream": 6391,
      "stumblest": 6392,
      "topgallant": 6393,
      "semblance": 6394,
      "refuse": 6395,
      "reports": 6396,
      "reported": 6397,
      "healths": 6398,
      "healthsome": 6399,
      "lestick": 6400,
      "leaps": 6401,
      "vexed": 6402,
      "utters": 6403,
      "uttered": 6404,
      "utterance": 6405,
      "defence": 6406,
      "depth": 6407,
      "depend": 6408,
      "depends": 6409,
      "deliciousness": 6410,
      "dealing": 6411,
      "agrees": 6412,
      "agreed": 6413,
      "unluckily": 6414,
      "worths": 6415,
      "worshipp": 6416,
      "identify": 6417,
      "identification": 6418,
      "apology": 6419,
      "fairest": 6420,
      "fails": 6421,
      "spicious": 6422,
      "ravening": 6423,
      "conceit": 6424,
      "conceal": 6425,
      "conceive": 6426,
      "considering": 6427,
      "modern": 6428,
      "government": 6429,
      "properer": 6430,
      "produce": 6431,
      "produced": 6432,
      "production": 6433,
      "provisions": 6434,
      "transgress": 6435,
      "troubled": 6436,
      "presage": 6437,
      "particularly": 6438,
      "blessings": 6439,
      "prisoner": 6440,
      "according": 6441,
      "jointure": 6442,
      "lustier": 6443,
      "drunkard": 6444,
      "strucken": 6445,
      "READ": 6446,
      "greetings": 6447,
      "grieve": 6448,
      "grievance": 6449,
      "grievances": 6450,
      "granted": 6451,
      "offered": 6452,
      "dumps": 6453,
      "pleasant": 6454,
      "monthly": 6455,
      "immediately": 6456,
      "quarrelled": 6457,
      "purgatory": 6458,
      "employment": 6459,
      "plantain": 6460,
      "visiting": 6461,
      "subjects": 6462,
      "INDEM": 6463,
      "INDIRECT": 6464,
      "waxes": 6465,
      "wondering": 6466,
      "continuance": 6467,
      "trembles": 6468,
      "beggarly": 6469,
      "pilgrimage": 6470,
      "_Retires_": 6471,
      "circled": 6472,
      "falsehood": 6473,
      "Beautiful": 6474,
      "triumphant": 6475,
      "opportunities": 6476,
      "AGREEMENT": 6477,
      "2022": 6478,
      "About": 6479,
      "Abate": 6480,
      "After": 6481,
      "Affection": 6482,
      "Against": 6483,
      "BEFORE": 6484,
      "Banish": 6485,
      "Banished": 6486,
      "Bearing": 6487,
      "Cheerly": 6488,
      "Chequering": 6489,
      "EMARK": 6490,
      "EXPRE": 6491,
      "EXCEPT": 6492,
      "Enough": 6493,
      "Environed": 6494,
      "Griefs": 6495,
      "Happiness": 6496,
      "Happily": 6497,
      "Immoderately": 6498,
      "Immediately": 6499,
      "Internal": 6500,
      "International": 6501,
      "Lead": 6502,
      "Leap": 6503,
      "Lovers": 6504,
      "Much": 6505,
      "Muffle": 6506,
      "Mission": 6507,
      "Mississi": 6508,
      "Perchance": 6509,
      "Perhaps": 6510,
      "Said": 6511,
      "Sailing": 6512,
      "Sups": 6513,
      "Supper": 6514,
      "Strange": 6515,
      "Straining": 6516,
      "TRAD": 6517,
      "TRAGEDY": 6518,
      "Titan": 6519,
      "Title": 6520,
      "Tickle": 6521,
      "Tickling": 6522,
      "UNDER": 6523,
      "Valentio": 6524,
      "Valentine": 6525,
      "WITH": 6526,
      "WILL": 6527,
      "_Sings": 6528,
      "_Snatch": 6529,
      "bait": 6530,
      "babe": 6531,
      "candle": 6532,
      "candles": 6533,
      "clearly": 6534,
      "dangerous": 6535,
      "dashing": 6536,
      "easy": 6537,
      "easily": 6538,
      "fisher": 6539,
      "fishified": 6540,
      "frost": 6541,
      "frozen": 6542,
      "flirt": 6543,
      "glory": 6544,
      "glorious": 6545,
      "gyves": 6546,
      "gypsy": 6547,
      "gentler": 6548,
      "huge": 6549,
      "humorous": 6550,
      "hungry": 6551,
      "jaunt": 6552,
      "jauncing": 6553,
      "justly": 6554,
      "justice": 6555,
      "large": 6556,
      "linked": 6557,
      "language": 6558,
      "languish": 6559,
      "mourners": 6560,
      "martial": 6561,
      "martyr": 6562,
      "nets": 6563,
      "network": 6564,
      "niece": 6565,
      "nieces": 6566,
      "punish": 6567,
      "punished": 6568,
      "pathway": 6569,
      "pathways": 6570,
      "plainly": 6571,
      "painted": 6572,
      "raging": 6573,
      "sorry": 6574,
      "snowy": 6575,
      "skilless": 6576,
      "sisters": 6577,
      "sisterhood": 6578,
      "tables": 6579,
      "variable": 6580,
      "variety": 6581,
      "whistles": 6582,
      "whispering": 6583,
      "invite": 6584,
      "invited": 6585,
      "argument": 6586,
      "argues": 6587,
      "attach": 6588,
      "attached": 6589,
      "stole": 6590,
      "stock": 6591,
      "stabbed": 6592,
      "stepping": 6593,
      "stretch": 6594,
      "stretches": 6595,
      "revel": 6596,
      "revels": 6597,
      "reaching": 6598,
      "resolve": 6599,
      "resolution": 6600,
      "widowed": 6601,
      "hazelnut": 6602,
      "chiefly": 6603,
      "liquor": 6604,
      "liquid": 6605,
      "forsooth": 6606,
      "forsaken": 6607,
      "riddling": 6608,
      "entreated": 6609,
      "uniform": 6610,
      "universal": 6611,
      "hereabouts": 6612,
      "feathers": 6613,
      "combin": 6614,
      "combine": 6615,
      "holiday": 6616,
      "holidame": 6617,
      "mannerly": 6618,
      "earliness": 6619,
      "confirmed": 6620,
      "confirmation": 6621,
      "abuses": 6622,
      "abhors": 6623,
      "abhorred": 6624,
      "absolv": 6625,
      "absolver": 6626,
      "modified": 6627,
      "modification": 6628,
      "discovery": 6629,
      "discolour": 6630,
      "distilled": 6631,
      "distemperature": 6632,
      "Capels": 6633,
      "procures": 6634,
      "extreme": 6635,
      "extremes": 6636,
      "extremity": 6637,
      "extremities": 6638,
      "periodic": 6639,
      "performed": 6640,
      "performances": 6641,
      "perilous": 6642,
      "mistaking": 6643,
      "prorogue": 6644,
      "prorogued": 6645,
      "Profaners": 6646,
      "Professor": 6647,
      "breathes": 6648,
      "dragon": 6649,
      "digging": 6650,
      "dignity": 6651,
      "dignified": 6652,
      "serpent": 6653,
      "serpents": 6654,
      "grub": 6655,
      "grubs": 6656,
      "courtier": 6657,
      "courtiers": 6658,
      "courtship": 6659,
      "merchant": 6660,
      "merchandise": 6661,
      "merrily": 6662,
      "merriment": 6663,
      "assistant": 6664,
      "assistance": 6665,
      "bandying": 6666,
      "tormented": 6667,
      "puffs": 6668,
      "puffing": 6669,
      "LIABILITY": 6670,
      "LIABLE": 6671,
      "pensive": 6672,
      "pennyworths": 6673,
      "piercing": 6674,
      "ATIONS": 6675,
      "corporation": 6676,
      "advanced": 6677,
      "wakened": 6678,
      "Defects": 6679,
      "waiting": 6680,
      "calculate": 6681,
      "calculated": 6682,
      "conjuration": 6683,
      "Helena": 6684,
      "Despis": 6685,
      "Despised": 6686,
      "practise": 6687,
      "practically": 6688,
      "methods": 6689,
      "cherishing": 6690,
      "disclaimers": 6691,
      "divinest": 6692,
      "Compare": 6693,
      "Compliance": 6694,
      "dropping": 6695,
      "harlots": 6696,
      "harlotry": 6697,
      "stumbled": 6698,
      "transcribe": 6699,
      "transcription": 6700,
      "employee": 6701,
      "employees": 6702,
      "Redistributing": 6703,
      "Redistribution": 6704,
      "baskets": 6705,
      "pestilent": 6706,
      "pestilence": 6707,
      "schoolboys": 6708,
      "sacrific": 6709,
      "sacrifices": 6710,
      "tutored": 6711,
      "original": 6712,
      "originator": 6713,
      "heralds": 6714,
      "necessaries": 6715,
      "necessarily": 6716,
      "DISTRIBUTE": 6717,
      "DISTRIBUTOR": 6718,
      "1887": 6719,
      "1998": 6720,
      "2001": 6721,
      "596": 6722,
      "6221541": 6723,
      "84116": 6724,
      "Acquaint": 6725,
      "Appear": 6726,
      "Author": 6727,
      "Aurora": 6728,
      "Above": 6729,
      "Abram": 6730,
      "Adieu": 6731,
      "April": 6732,
      "Affliction": 6733,
      "Accurs": 6734,
      "Abraham": 6735,
      "Boy": 6736,
      "Betroth": 6737,
      "Belonging": 6738,
      "Blubbering": 6739,
      "Bondage": 6740,
      "Brags": 6741,
      "Cynthi": 6742,
      "Couple": 6743,
      "Catling": 6744,
      "Creating": 6745,
      "Cleopatra": 6746,
      "Chain": 6747,
      "Courage": 6748,
      "Cophetua": 6749,
      "Clubs": 6750,
      "CONTRACT": 6751,
      "Conceit": 6752,
      "Culling": 6753,
      "Displant": 6754,
      "Deny": 6755,
      "Driving": 6756,
      "Depart": 6757,
      "DONATIONS": 6758,
      "Delay": 6759,
      "Drums": 6760,
      "Direct": 6761,
      "EVEN": 6762,
      "Eyes": 6763,
      "Earth": 6764,
      "Easter": 6765,
      "Escalus": 6766,
      "ESCALUS": 6767,
      "English": 6768,
      "Ethiop": 6769,
      "Feeling": 6770,
      "Follow": 6771,
      "First": 6772,
      "Fifth": 6773,
      "Feather": 6774,
      "FOUNDATION": 6775,
      "FITNES": 6776,
      "Guards": 6777,
      "Groan": 6778,
      "Graze": 6779,
      "Guests": 6780,
      "Grindstone": 6781,
      "Haply": 6782,
      "Hunting": 6783,
      "Humours": 6784,
      "HAVE": 6785,
      "IMPLI": 6786,
      "James": 6787,
      "Killing": 6788,
      "Laura": 6789,
      "Lucio": 6790,
      "Lifts": 6791,
      "Leave": 6792,
      "Lucentio": 6793,
      "Language": 6794,
      "Murder": 6795,
      "Maintains": 6796,
      "Martino": 6797,
      "Michael": 6798,
      "Maria": 6799,
      "NITIVE": 6800,
      "NEGLIGENCE": 6801,
      "OWNER": 6802,
      "OTHER": 6803,
      "PUNITIVE": 6804,
      "Peer": 6805,
      "Prepare": 6806,
      "Please": 6807,
      "Phaeton": 6808,
      "Pentecost": 6809,
      "Pursu": 6810,
      "Phoebus": 6811,
      "Placentio": 6812,
      "PURPOSE": 6813,
      "Personæ": 6814,
      "Piteous": 6815,
      "Passion": 6816,
      "Patience": 6817,
      "PLEASE": 6818,
      "POSSIBILITY": 6819,
      "Quarrel": 6820,
      "Queen": 6821,
      "Raise": 6822,
      "Replacement": 6823,
      "Refund": 6824,
      "Release": 6825,
      "Riddling": 6826,
      "SUCH": 6827,
      "Simon": 6828,
      "Spakest": 6829,
      "Sampson": 6830,
      "Soundpost": 6831,
      "Spread": 6832,
      "Special": 6833,
      "Spanish": 6834,
      "Team": 6835,
      "Tiberio": 6836,
      "Tonight": 6837,
      "Tartar": 6838,
      "Transparent": 6839,
      "Tempering": 6840,
      "Utter": 6841,
      "Uneven": 6842,
      "Utruvio": 6843,
      "Virtue": 6844,
      "Volunteers": 6845,
      "Whiter": 6846,
      "Wert": 6847,
      "Whistle": 6848,
      "Wives": 6849,
      "Wisely": 6850,
      "WORK": 6851,
      "Whipp": 6852,
      "_Enters": 6853,
      "_Noise": 6854,
      "_Beats": 6855,
      "_Gives": 6856,
      "_Drinks": 6857,
      "_Descends": 6858,
      "_Putting": 6859,
      "_stabs": 6860,
      "_Breaking": 6861,
      "axe": 6862,
      "afeard": 6863,
      "binary": 6864,
      "borne": 6865,
      "bargain": 6866,
      "benefice": 6867,
      "battlements": 6868,
      "bonjour": 6869,
      "baptis": 6870,
      "bachelor": 6871,
      "bladders": 6872,
      "baleful": 6873,
      "bauble": 6874,
      "curious": 6875,
      "captain": 6876,
      "chastity": 6877,
      "coughing": 6878,
      "chapless": 6879,
      "crush": 6880,
      "cados": 6881,
      "dank": 6882,
      "dirges": 6883,
      "dainty": 6884,
      "darting": 6885,
      "drave": 6886,
      "drowsy": 6887,
      "eloquence": 6888,
      "eagle": 6889,
      "embrace": 6890,
      "financial": 6891,
      "fashion": 6892,
      "fettle": 6893,
      "funeral": 6894,
      "film": 6895,
      "frowning": 6896,
      "fountains": 6897,
      "fiddlestick": 6898,
      "fantasy": 6899,
      "gorgeous": 6900,
      "garish": 6901,
      "glides": 6902,
      "gadding": 6903,
      "gapes": 6904,
      "glooming": 6905,
      "giddy": 6906,
      "hoop": 6907,
      "harmless": 6908,
      "humbly": 6909,
      "idolat": 6910,
      "jaws": 6911,
      "judgement": 6912,
      "kitchen": 6913,
      "lisping": 6914,
      "lurk": 6915,
      "lengthens": 6916,
      "mammet": 6917,
      "midwife": 6918,
      "milk": 6919,
      "mongers": 6920,
      "mountain": 6921,
      "miles": 6922,
      "mickle": 6923,
      "middle": 6924,
      "nuns": 6925,
      "nourish": 6926,
      "nuptial": 6927,
      "naked": 6928,
      "nickname": 6929,
      "nipple": 6930,
      "osier": 6931,
      "operation": 6932,
      "pomegranate": 6933,
      "pupil": 6934,
      "pantry": 6935,
      "peppered": 6936,
      "parson": 6937,
      "plucks": 6938,
      "poultice": 6939,
      "quean": 6940,
      "rites": 6941,
      "softest": 6942,
      "slop": 6943,
      "scope": 6944,
      "squirrel": 6945,
      "slug": 6946,
      "safety": 6947,
      "swallowed": 6948,
      "title": 6949,
      "tassel": 6950,
      "tuners": 6951,
      "tilts": 6952,
      "tardy": 6953,
      "tetchy": 6954,
      "villanous": 6955,
      "winning": 6956,
      "wanders": 6957,
      "wreak": 6958,
      "woful": 6959,
      "winged": 6960,
      "whoreson": 6961,
      "waddled": 6962,
      "yielding": 6963,
      "yesternight": 6964,
      "throats": 6965,
      "thievish": 6966,
      "thwarted": 6967,
      "erperch": 6968,
      "errors": 6969,
      "intrusion": 6970,
      "inaccurate": 6971,
      "invocation": 6972,
      "incomplete": 6973,
      "inundation": 6974,
      "infectious": 6975,
      "increasing": 6976,
      "inauspicious": 6977,
      "indemnify": 6978,
      "incorporate": 6979,
      "anatomy": 6980,
      "orisons": 6981,
      "arithmetic": 6982,
      "arbitrating": 6983,
      "engrossing": 6984,
      "enpierced": 6985,
      "encamp": 6986,
      "atomies": 6987,
      "attires": 6988,
      "measuring": 6989,
      "meteor": 6990,
      "memory": 6991,
      "melancholy": 6992,
      "stroke": 6993,
      "stools": 6994,
      "stickest": 6995,
      "stifled": 6996,
      "staff": 6997,
      "study": 6998,
      "stumbling": 6999,
      "stoccata": 7000,
      "separated": 7001,
      "seducing": 7002,
      "seize": 7003,
      "redeem": 7004,
      "religion": 7005,
      "reconcile": 7006,
      "required": 7007,
      "reputation": 7008,
      "reflex": 7009,
      "representations": 7010,
      "residence": 7011,
      "heareth": 7012,
      "level": 7013,
      "legally": 7014,
      "wicked": 7015,
      "widespread": 7016,
      "beetle": 7017,
      "behoveful": 7018,
      "beloved": 7019,
      "becomed": 7020,
      "bescreen": 7021,
      "bewitched": 7022,
      "haughty": 7023,
      "youngest": 7024,
      "churl": 7025,
      "chopp": 7026,
      "ropery": 7027,
      "rooteth": 7028,
      "deletions": 7029,
      "detach": 7030,
      "desirest": 7031,
      "defiance": 7032,
      "deformities": 7033,
      "decreed": 7034,
      "dexterity": 7035,
      "limping": 7036,
      "library": 7037,
      "heretics": 7038,
      "assailing": 7039,
      "assembly": 7040,
      "ripening": 7041,
      "addresses": 7042,
      "adversary": 7043,
      "admired": 7044,
      "adjacent": 7045,
      "notifies": 7046,
      "especially": 7047,
      "alteration": 7048,
      "alderman": 7049,
      "alternate": 7050,
      "educational": 7051,
      "alligator": 7052,
      "unmann": 7053,
      "untaught": 7054,
      "unbruised": 7055,
      "unsavoury": 7056,
      "unfirm": 7057,
      "unruly": 7058,
      "unsolicited": 7059,
      "unworthiest": 7060,
      "unpleasing": 7061,
      "unthankfulness": 7062,
      "unenforceability": 7063,
      "ambuscados": 7064,
      "ourselves": 7065,
      "ENTIAL": 7066,
      "female": 7067,
      "festering": 7068,
      "artificial": 7069,
      "coachmakers": 7070,
      "appertaining": 7071,
      "neglecting": 7072,
      "shrunk": 7073,
      "upturned": 7074,
      "maximum": 7075,
      "sparkling": 7076,
      "spices": 7077,
      "splendour": 7078,
      "suffer": 7079,
      "suspected": 7080,
      "conquer": 7081,
      "conveniently": 7082,
      "contagion": 7083,
      "convoy": 7084,
      "contract": 7085,
      "concludes": 7086,
      "consequence": 7087,
      "consortest": 7088,
      "Together": 7089,
      "mumbling": 7090,
      "muffled": 7091,
      "Produced": 7092,
      "Prodigious": 7093,
      "inexorable": 7094,
      "disperse": 7095,
      "distressed": 7096,
      "disparagement": 7097,
      "dispute": 7098,
      "distraught": 7099,
      "discharg": 7100,
      "discern": 7101,
      "disguis": 7102,
      "dispraise": 7103,
      "dissemblers": 7104,
      "RIGHT": 7105,
      "eastern": 7106,
      "indirectly": 7107,
      "marchpane": 7108,
      "poperin": 7109,
      "posterity": 7110,
      "Forgetting": 7111,
      "problem": 7112,
      "provoke": 7113,
      "prostrate": 7114,
      "processing": 7115,
      "prologue": 7116,
      "quinces": 7117,
      "tiptoe": 7118,
      "MERCHANTABILITY": 7119,
      "forefathers": 7120,
      "prefixed": 7121,
      "prevails": 7122,
      "predicament": 7123,
      "predominant": 7124,
      "eyeless": 7125,
      "boisterous": 7126,
      "hypertext": 7127,
      "hymns": 7128,
      "tyrannous": 7129,
      "Nobleman": 7130,
      "exporting": 7131,
      "exclusion": 7132,
      "expire": 7133,
      "expressly": 7134,
      "experienc": 7135,
      "execution": 7136,
      "pernicious": 7137,
      "acknowledge": 7138,
      "effeminate": 7139,
      "mistresses": 7140,
      "misapplied": 7141,
      "misadventur": 7142,
      "mischief": 7143,
      "ancestors": 7144,
      "prudence": 7145,
      "princox": 7146,
      "acquaintance": 7147,
      "opposite": 7148,
      "bedaub": 7149,
      "scrape": 7150,
      "Sojourn": 7151,
      "braggart": 7152,
      "Unplagu": 7153,
      "Unseemly": 7154,
      "Unwieldy": 7155,
      "Officer": 7156,
      "bankrout": 7157,
      "wrenching": 7158,
      "treacherous": 7159,
      "stratagems": 7160,
      "Antony": 7161,
      "division": 7162,
      "afflicted": 7163,
      "REPLACEMENT": 7164,
      "PARAGRAPH": 7165,
      "commercial": 7166,
      "grasshoppers": 7167,
      "deductible": 7168,
      "ignorance": 7169,
      "happily": 7170,
      "traffic": 7171,
      "Petruchio": 7172,
      "Benedicite": 7173,
      "Remnants": 7174,
      "Remembering": 7175,
      "Rebellious": 7176,
      "Revolts": 7177,
      "twisted": 7178,
      "saluteth": 7179,
      "receptacle": 7180,
      "CONSEQUENTIAL": 7181,
      "organized": 7182,
      "overwhelming": 7183,
      "INCLUDING": 7184,
      "INCIDENTAL": 7185,
      "impatient": 7186,
      "curtsies": 7187,
      "PROVIDED": 7188,
      "Subtly": 7189,
      "Suspecting": 7190,
      "critical": 7191,
      "drizzle": 7192,
      "interchanging": 7193,
      "Sweetheart": 7194,
      "phantasies": 7195,
      "Additional": 7196,
      "Christian": 7197,
      "Miscarried": 7198,
      "NOTICE": 7199,
      "crotchets": 7200,
      "augmenting": 7201,
      "cockatrice": 7202,
      "DISCLAIMER": 7203,
      "familiar": 7204,
      "shoemaker": 7205,
      "transgression": 7206,
      "INDEMNITY": 7207,
      "EXPRESS": 7208,
      "Mississippi": 7209,
      "TRADEMARK": 7210,
      "_Snatching": 7211,
      "Cynthia": 7212,
      "FITNESS": 7213,
      "IMPLIED": 7214,
      "idolatry": 7215
    },
    "merges": [
      "t h",
      "e r",
      "o u",
      "i n",
      "a n",
      "th e",
      "i s",
      "o r",
      "a r",
      "e n",
      "a t",
      "o n",
      "l l",
      "m e",
      "s t",
      "t o",
      "an d",
      "s e",
      "r e",
      "h e",
      "l e",
      "v e",
      "w i",
      "n o",
      "o f",
      "in g",
      "i t",
      "b e",
      "h a",
      "y ou",
      "u t",
      "c h",
      "r o",
      "a y",
      "d e",
      "l i",
      "c e",
      "n d",
      "o me",
      "f or",
      "l o",
      "g h",
      "h er",
      "m y",
      "wi th",
      "a s",
      "r i",
      "a d",
      "no t",
      "e s",
      "a l",
      "e t",
      "th at",
      "l d",
      "gh t",
      "h at",
      "e d",
      "th ou",
      "en t",
      "h i",
      "w e",
      "i r",
      "A nd",
      "u r",
      "E T",
      "M E",
      "o w",
      "U L",
      "th is",
      "th er",
      "a g",
      "o o",
      "a ll",
      "k e",
      "t er",
      "c t",
      "i on",
      "s o",
      "u n",
      "w or",
      "l y",
      "T h",
      "a m",
      "ou r",
      "her e",
      "R O",
      "a in",
      "ME O",
      "RO MEO",
      "d o",
      "th y",
      "on e",
      "E N",
      "f e",
      "c k",
      "i d",
      "v er",
      "R ome",
      "ar e",
      "ar t",
      "Rome o",
      "c o",
      "h o",
      "lo ve",
      "m an",
      "wi ll",
      "a p",
      "i ght",
      "the e",
      "b ut",
      "f a",
      "s ha",
      "le t",
      "b er",
      "h is",
      "n e",
      "a w",
      "ou ld",
      "I O",
      "S E",
      "s h",
      "u p",
      "t e",
      "m a",
      "I ET",
      "J UL",
      "ha ve",
      "JUL IET",
      "s p",
      "i ll",
      "b y",
      "u s",
      "a th",
      "ro m",
      "A R",
      "T he",
      "e ct",
      "i ve",
      "L A",
      "W hat",
      "m or",
      "s he",
      "hi m",
      "you r",
      "no w",
      "A P",
      "oo d",
      "ou t",
      "u e",
      "C AP",
      "UL ET",
      "CAP ULET",
      "an t",
      "c ome",
      "r a",
      "en d",
      "sha ll",
      "f rom",
      "s s",
      "en ber",
      "ut enber",
      "utenber g",
      "i c",
      "l a",
      "s u",
      "U R",
      "e ar",
      "N UR",
      "c on",
      "d ay",
      "NUR SE",
      "T o",
      "m u",
      "P ro",
      "a b",
      "i f",
      "j ect",
      "m o",
      "ou nd",
      "G utenberg",
      "m p",
      "in e",
      "Pro ject",
      "B ut",
      "c an",
      "n ter",
      "d is",
      "k s",
      "n ight",
      "en ce",
      "R I",
      "ou s",
      "ad y",
      "T hat",
      "o d",
      "e a",
      "er e",
      "at e",
      "u l",
      "J u",
      "in d",
      "C E",
      "e p",
      "g o",
      "i l",
      "at ion",
      "E nter",
      "C ap",
      "al t",
      "m ar",
      "p o",
      "t a",
      "ro w",
      "li et",
      "Ju liet",
      "U T",
      "u let",
      "Cap ulet",
      "E x",
      "F or",
      "er s",
      "an y",
      "de ath",
      "hi ch",
      "w hat",
      "m ent",
      "p ro",
      "q u",
      "t r",
      "g ood",
      "we ll",
      "_ Ex",
      "w o",
      "ar d",
      "se l",
      "a me",
      "ME R",
      "ther e",
      "B EN",
      "L IO",
      "O LIO",
      "V OLIO",
      "t i",
      "MER C",
      "BEN VOLIO",
      "T y",
      "b alt",
      "s ay",
      "UT IO",
      "MERC UTIO",
      "Ty balt",
      "ur se",
      "mor e",
      "F RI",
      "i e",
      "se e",
      "FRI AR",
      "m ay",
      "v en",
      "on g",
      "the n",
      "u re",
      "for e",
      "r y",
      "s ome",
      "s ir",
      "t m",
      "u se",
      "EN CE",
      "N urse",
      "R ENCE",
      "W RENCE",
      "i th",
      "o ther",
      "to o",
      "LA WRENCE",
      "h en",
      "w ould",
      "re e",
      "ag e",
      "p re",
      "w as",
      "ou n",
      "ha th",
      "M y",
      "g e",
      "sel f",
      "e y",
      "m en",
      "th an",
      "b o",
      "p y",
      "de ad",
      "D Y",
      "h y",
      "ou se",
      "wor k",
      "ti me",
      "W e",
      "s we",
      "t y",
      "wor d",
      "LA DY",
      "mu st",
      "N o",
      "O N",
      "s i",
      "fa ir",
      "sh ould",
      "A N",
      "e x",
      "k now",
      "the ir",
      "or d",
      "li ght",
      "ow n",
      "a st",
      "l ady",
      "o ld",
      "p er",
      "the y",
      "su ch",
      "a ck",
      "e f",
      "g ive",
      "i es",
      "Th ou",
      "Th is",
      "F ri",
      "I f",
      "p art",
      "th ing",
      "M on",
      "b le",
      "m is",
      "v i",
      "an ce",
      "the m",
      "he a",
      "ha st",
      "ent le",
      "Fri ar",
      "S t",
      "p r",
      "or t",
      "li ke",
      "I n",
      "lo o",
      "un t",
      "te ll",
      "I s",
      "I t",
      "e l",
      "l t",
      "t ag",
      "w here",
      "in k",
      "is h",
      "lo w",
      "ver y",
      "a ve",
      "d id",
      "h and",
      "l ay",
      "t ri",
      "w ho",
      "w hich",
      "w hen",
      "y et",
      "in ce",
      "an s",
      "the se",
      "is e",
      "ar s",
      "it e",
      "ur n",
      "up on",
      "ma ke",
      "Mon tag",
      "A s",
      "C ome",
      "D o",
      "I I",
      "a c",
      "g entle",
      "m s",
      "o p",
      "v o",
      "ne w",
      "swe et",
      "P ar",
      "T H",
      "c i",
      "d er",
      "j o",
      "es s",
      "mu ch",
      "Par is",
      "B e",
      "P r",
      "Y ou",
      "it y",
      "ri ght",
      "ag ain",
      "A L",
      "f i",
      "l u",
      "he art",
      "be d",
      "do th",
      "co py",
      "ab le",
      "W here",
      "b re",
      "c he",
      "e le",
      "e unt",
      "g one",
      "s c",
      "w ere",
      "er c",
      "ar y",
      "en e",
      "li ve",
      "_Ex eunt",
      "B y",
      "G od",
      "W ith",
      "a k",
      "h ow",
      "at ch",
      "co mp",
      "ta ke",
      "Montag ue",
      "H ow",
      "O R",
      "S o",
      "W hy",
      "b r",
      "b ack",
      "d r",
      "f u",
      "m b",
      "n ame",
      "wor ks",
      "_Ex it",
      "B AL",
      "G o",
      "I S",
      "O r",
      "U n",
      "W hich",
      "f ul",
      "h ouse",
      "i o",
      "hea ven",
      "loo k",
      "A M",
      "A y",
      "O f",
      "T here",
      "a ke",
      "b an",
      "c all",
      "l aw",
      "m ber",
      "m ine",
      "r on",
      "u ght",
      "w r",
      "ll ow",
      "for m",
      "sp ea",
      "mar ri",
      "ey es",
      "tri but",
      "ele ct",
      "c a",
      "p s",
      "t s",
      "t re",
      "an g",
      "st r",
      "li e",
      "oo k",
      "Th en",
      "ron ic",
      "elect ronic",
      "A n",
      "I R",
      "S C",
      "d i",
      "v ing",
      "come s",
      ", —",
      "S c",
      "a f",
      "g ra",
      "he ad",
      "le ss",
      "de ar",
      "A G",
      "H e",
      "L aw",
      "M erc",
      "R E",
      "S T",
      "d re",
      "g re",
      "h our",
      "l ong",
      "r ence",
      "t is",
      "st and",
      "he ar",
      "it t",
      "ch i",
      "lo od",
      "ke ep",
      "tr ue",
      "Pr ince",
      "Law rence",
      "N ow",
      "P AR",
      "b lood",
      "e st",
      "h ence",
      "l ain",
      "m ad",
      "ou gh",
      "in s",
      "en se",
      "ut io",
      "ag ree",
      "EN E",
      "fa ther",
      "la ce",
      "ear s",
      "can not",
      "dis tribut",
      "AN T",
      "SC ENE",
      "Merc utio",
      "F ound",
      "H ere",
      "L ady",
      "d ie",
      "f ind",
      "l ord",
      "n ing",
      "s er",
      "at es",
      "st ay",
      "wi lt",
      "li fe",
      "for t",
      "ma de",
      "ma id",
      "qu i",
      "spea k",
      "Sc ene",
      "PAR IS",
      "Found ation",
      "F IR",
      "S he",
      "S ha",
      "W ho",
      "b id",
      "c oun",
      "f o",
      "g ri",
      "p e",
      "s a",
      "t al",
      "t ain",
      "u nd",
      "w ay",
      "is he",
      "ar k",
      "at ed",
      "li c",
      "co m",
      "aw ay",
      "mo st",
      "mo ve",
      "mar k",
      "FIR ST",
      "T Y",
      "U S",
      "a ught",
      "f ri",
      "f oo",
      "g r",
      "n g",
      "p ar",
      "th ink",
      "ou d",
      "se t",
      "re t",
      "re st",
      "he l",
      "ing s",
      "be fore",
      "ha d",
      "for th",
      "fe ar",
      "fa ce",
      "jo y",
      "fu ll",
      "E R",
      "P S",
      "S AM",
      "p ea",
      "s ou",
      "s ent",
      "in t",
      "it ed",
      "be g",
      "you ng",
      "de d",
      "ter ms",
      "wor ld",
      "let ter",
      "mor row",
      "ab out",
      "chi ld",
      "ishe d",
      "fri end",
      "PS ON",
      "SAM PSON",
      "A r",
      "G ood",
      "R V",
      "c our",
      "d en",
      "f low",
      "m er",
      "p ut",
      "p lace",
      "r un",
      "s se",
      "u st",
      "le ep",
      "be en",
      "li es",
      "are well",
      "ho ld",
      "SE RV",
      "te ars",
      "la ck",
      "ear th",
      "bo th",
      "pr ay",
      "SERV ANT",
      "C T",
      "c ous",
      "d on",
      "d own",
      "d aught",
      "f t",
      "f all",
      "i g",
      "i ce",
      "k es",
      "k ill",
      "s on",
      "wi fe",
      "of f",
      "ha p",
      "with out",
      "as k",
      "as s",
      "ur s",
      "ur ch",
      "Th y",
      "fe ct",
      "ho ly",
      "ne ed",
      "us ic",
      "ation s",
      "ey e",
      "We ll",
      "copy right",
      "ban ished",
      "marri ed",
      "gra ve",
      "dre am",
      "cous in",
      "C I",
      "V er",
      "b ri",
      "d u",
      "e B",
      "e ver",
      "g et",
      "k ins",
      "o m",
      "p a",
      "p le",
      "s ound",
      "t ra",
      "v a",
      "v ant",
      "w w",
      "w ar",
      "an ge",
      "is on",
      "or e",
      "st er",
      "fa ith",
      "oun ty",
      "BAL T",
      "ca use",
      "TY BALT",
      "hel p",
      "C ounty",
      "P et",
      "a ut",
      "b and",
      "m on",
      "o ve",
      "p lay",
      "r ap",
      "s un",
      "s lain",
      "t ill",
      "u a",
      "re l",
      "be aut",
      "ch ar",
      "li ps",
      "ce ll",
      "ce ss",
      "we ep",
      "ain t",
      "ne ver",
      "sh ow",
      "ill ain",
      "ear ly",
      "mo ther",
      "bre ath",
      "agree ment",
      "US I",
      "daught er",
      "B en",
      "G OR",
      "G RE",
      "L et",
      "M ant",
      "N CE",
      "P RI",
      "R e",
      "U E",
      "W hen",
      "c lo",
      "c lu",
      "e ll",
      "i ther",
      "o se",
      "r ough",
      "s ame",
      "t or",
      "t on",
      "t end",
      "y e",
      "is s",
      "ar ry",
      "re ad",
      "it ion",
      "be ar",
      "de sp",
      "No t",
      "Sha ll",
      "sou l",
      "GOR Y",
      "GRE GORY",
      "Mant ua",
      "PRI NCE",
      "C H",
      "G ive",
      "S ome",
      "T is",
      "c ould",
      "d ing",
      "i m",
      "m ur",
      "p t",
      "p ri",
      "p ort",
      "t w",
      "t wo",
      "u d",
      "u m",
      "v illain",
      "w ard",
      "th ose",
      "or n",
      "on a",
      "st e",
      "re et",
      "le d",
      "be t",
      "ch urch",
      "li o",
      "al one",
      "ver s",
      "ap p",
      "The y",
      "qu ar",
      "ON T",
      "hast e",
      "St ates",
      "gentle man",
      "vo lio",
      "new s",
      "TH A",
      "dr aw",
      "Un ited",
      "fo llow",
      "tal k",
      "pea ce",
      "Ver ona",
      "Pet er",
      "Ben volio",
      "A h",
      "M ad",
      "M USI",
      "M ONT",
      "N ay",
      "P ET",
      "W ill",
      "Y our",
      "a ch",
      "c l",
      "f ir",
      "h us",
      "i le",
      "l ate",
      "m usic",
      "n one",
      "r an",
      "r ant",
      "s in",
      "s end",
      "u ment",
      "le ave",
      "wi t",
      "no thing",
      "it er",
      "be st",
      "ha mber",
      "my self",
      "with in",
      "as ure",
      "hi le",
      "hi ther",
      "so on",
      "Th urs",
      "am ent",
      "man y",
      "Be ing",
      "live s",
      "AG UE",
      "gri ef",
      "und er",
      "hap py",
      "CI AN",
      "ton ight",
      "MUSI CIAN",
      "MONT AGUE",
      "PET ER",
      "hus band",
      "Thurs day",
      "A ll",
      "H er",
      "H old",
      "L iter",
      "S er",
      "S AR",
      "a se",
      "a ir",
      "b ro",
      "b ound",
      "c re",
      "c ord",
      "g er",
      "g ro",
      "l itt",
      "m in",
      "n or",
      "p u",
      "p ur",
      "s m",
      "s ion",
      "s word",
      "s leep",
      "v y",
      "w er",
      "w all",
      "w atch",
      "y ears",
      "th ine",
      "in clu",
      "an other",
      "or row",
      "en ch",
      "at s",
      "st ill",
      "to morrow",
      "of t",
      "ch ive",
      "de mark",
      "hat e",
      "ag rap",
      "un e",
      "do st",
      "ma ster",
      "day s",
      "ul t",
      "po or",
      "wo e",
      "ard on",
      "hand s",
      "TH E",
      "BAL THA",
      "sa id",
      "par agrap",
      "Ar chive",
      "kins man",
      "tra demark",
      "mur der",
      "Mad am",
      "Liter ary",
      "litt le",
      "BALTHA SAR",
      "paragrap h",
      ". —",
      "A CT",
      "F arewell",
      "H ouse",
      "I V",
      "L I",
      "M arry",
      "R o",
      "b od",
      "e mp",
      "f ree",
      "h on",
      "n at",
      "n ess",
      "p l",
      "p en",
      "r u",
      "s al",
      "s il",
      "t ong",
      "t urn",
      "v is",
      "w ind",
      "x t",
      "me ans",
      "st ate",
      "se s",
      "re d",
      "re ce",
      "le ar",
      "it s",
      "be ing",
      "al th",
      "oo m",
      "oo se",
      "ma kes",
      "ect ion",
      "con f",
      "po ison",
      "bo y",
      "si de",
      "ef ul",
      "Do th",
      "II I",
      "ac cess",
      "che e",
      "There fore",
      "wr it",
      "com fort",
      "flow er",
      "don ations",
      "war rant",
      "bet ter",
      "Ser vant",
      "hon our",
      "! —",
      "C ON",
      "O F",
      "O ne",
      "e ven",
      "e very",
      "f le",
      "k ind",
      "l s",
      "l ing",
      "l ad",
      "p i",
      "p ay",
      "p ass",
      "p ardon",
      "r ing",
      "s up",
      "w ed",
      "w ise",
      "y on",
      "or g",
      "ar m",
      "at ter",
      "on ce",
      "on ly",
      "me d",
      "ve s",
      "de ed",
      "ri ch",
      "thou ght",
      "ent y",
      "wor n",
      "Th an",
      "sha me",
      "mor ning",
      "la st",
      "ment s",
      "pro te",
      "pro vi",
      "tr u",
      "there fore",
      "mis sion",
      "who se",
      "br ing",
      "marri age",
      "tre ss",
      "gre at",
      "foo t",
      "sse d",
      "eB ook",
      "beaut y",
      "tw enty",
      "quar rel",
      "bod y",
      "tong ue",
      "A T",
      "A t",
      "D r",
      "H ath",
      "H ave",
      "L ic",
      "N or",
      "O n",
      "S e",
      "b u",
      "b lack",
      "c or",
      "d one",
      "f ar",
      "f ound",
      "h one",
      "i v",
      "i ous",
      "k n",
      "k iss",
      "o l",
      "o st",
      "o ver",
      "p rom",
      "s ad",
      "s aw",
      "s orrow",
      "u es",
      "y ard",
      "er ate",
      "ou ght",
      "on es",
      "me et",
      "st ir",
      "st ra",
      "re ady",
      "le s",
      "be see",
      "as on",
      "ad v",
      "hi p",
      "hi de",
      "hi gh",
      "oo ks",
      "ion s",
      "so ci",
      "fe e",
      "co ver",
      "sha lt",
      "SE CON",
      "te mp",
      "him self",
      "ue st",
      "su b",
      "mar ry",
      "row s",
      "say s",
      "other s",
      "swe ar",
      "si ck",
      "hea vy",
      "el se",
      "again st",
      "call s",
      "law s",
      "mad am",
      "gr ound",
      "bri de",
      "pa le",
      "desp erate",
      "fir st",
      "Ro sal",
      "sil ver",
      "Lic ense",
      "stra ight",
      "SECON D",
      "Rosal ine",
      "A B",
      "I N",
      "P o",
      "T ake",
      "U p",
      "b s",
      "b ir",
      "c le",
      "c ame",
      "d am",
      "f f",
      "f ight",
      "g utenberg",
      "h or",
      "i z",
      "i re",
      "i mp",
      "i ans",
      "m n",
      "m ing",
      "m ind",
      "o b",
      "o th",
      "p ow",
      "p ers",
      "t ing",
      "w ak",
      "th rough",
      "in ks",
      "in ess",
      "an ci",
      "or y",
      "at i",
      "at ing",
      "me an",
      "me mber",
      "me di",
      "no ck",
      "no ble",
      "you th",
      "ch ange",
      "ce pt",
      "for get",
      "thou gh",
      "ent s",
      "ent er",
      "ur y",
      "ain s",
      "fe llow",
      "ho t",
      "sp e",
      "ab ove",
      "go ld",
      "row n",
      "wo man",
      "than k",
      "time s",
      "mis tress",
      "St ay",
      "op en",
      "jo in",
      "fi re",
      "With in",
      "comp ly",
      "ban ish",
      "ca se",
      "af ter",
      "hour s",
      "ser ve",
      "foo l",
      "oud s",
      "ret urn",
      "ig n",
      "va ult",
      "ww w",
      "mon ument",
      "char ge",
      "tor ch",
      "cord s",
      "lear n",
      "* *",
      "C on",
      "C ell",
      "D e",
      "G ard",
      "H is",
      "H ence",
      "L ook",
      "M ore",
      "S ection",
      "W AT",
      "Y et",
      "a ct",
      "b it",
      "b ite",
      "b urn",
      "b ook",
      "b lic",
      "b ones",
      "c ou",
      "c ri",
      "c ur",
      "c hamber",
      "d ark",
      "f ing",
      "f our",
      "f arewell",
      "g all",
      "g oose",
      "h it",
      "h ur",
      "h ood",
      "i er",
      "i al",
      "i fe",
      "l come",
      "l ament",
      "m ain",
      "m ight",
      "p are",
      "p ast",
      "r ay",
      "s ing",
      "s ight",
      "s la",
      "s ort",
      "t ion",
      "u mb",
      "v il",
      "w a",
      "w ant",
      "w ast",
      "er al",
      "in to",
      "is ter",
      "ar ch",
      "en s",
      "at is",
      "to mb",
      "se a",
      "se con",
      "re w",
      "re fu",
      "re ason",
      "be cause",
      "lo c",
      "as soci",
      "et ch",
      "so m",
      "fe ast",
      "fe el",
      "co p",
      "ne ar",
      "sh ri",
      "sh ort",
      "sp o",
      "mor tal",
      "po st",
      "po se",
      "Capulet s",
      "tr y",
      "wo es",
      "pre t",
      "bo som",
      "St reet",
      "ans wer",
      "wr itt",
      "form ation",
      "ang er",
      "AG E",
      "distribut ing",
      "coun sel",
      "move d",
      "mer ry",
      "church yard",
      "cl ouds",
      "pu blic",
      "inclu ding",
      "conf ess",
      "prote ct",
      "Se e",
      "pers on",
      "anci ent",
      "Gard en",
      "WAT CH",
      "secon d",
      "refu nd",
      "writt en",
      "A l",
      "A lack",
      "C all",
      "D id",
      "L ord",
      "M ay",
      "O U",
      "O ut",
      "P RO",
      "P age",
      "R et",
      "S u",
      "T oo",
      "T ill",
      "T urn",
      "W as",
      "b l",
      "b t",
      "b ow",
      "b us",
      "c r",
      "c ut",
      "c are",
      "c ure",
      "c ry",
      "d ri",
      "d ag",
      "d den",
      "e ither",
      "g s",
      "g ir",
      "h ome",
      "i ed",
      "j est",
      "k en",
      "k ing",
      "m end",
      "p al",
      "p ati",
      "s and",
      "s it",
      "s ince",
      "s worn",
      "s atis",
      "u ll",
      "w hy",
      "w ish",
      "w ret",
      "w hile",
      "er y",
      "in ter",
      "in deed",
      "is t",
      "ar ing",
      "en g",
      "en ough",
      "me t",
      "me asure",
      "st ri",
      "st ant",
      "st ars",
      "se en",
      "re g",
      "re member",
      "wi ts",
      "be hold",
      "de s",
      "de st",
      "li m",
      "lo ving",
      "lo vers",
      "ad d",
      "thou sand",
      "so le",
      "un to",
      "un te",
      "thy self",
      "ck s",
      "co ll",
      "co st",
      "co ld",
      "ne xt",
      "te en",
      "ive d",
      "end s",
      "su dden",
      "can st",
      "po s",
      "ta x",
      "wo eful",
      "pre ss",
      "pre sent",
      "word s",
      "si mp",
      "ex c",
      "give s",
      "thing s",
      "vi le",
      "vi ous",
      "loo ks",
      "ac c",
      "gentle men",
      "fi ed",
      "blood y",
      "distribut ion",
      "fort une",
      "maid s",
      "qui re",
      "qui ck",
      "lic ense",
      "fear ful",
      "eB ooks",
      "show s",
      "clo se",
      "tend er",
      "fle sh",
      "provi de",
      "Dr aw",
      "cor se",
      "hone st",
      "besee ch",
      "cou nter",
      "loc ated",
      "associ ated",
      "cop ies",
      "dag ger",
      "B alth",
      "C an",
      "C hamber",
      "E CT",
      "F rom",
      "H all",
      "H ie",
      "L i",
      "L ove",
      "M e",
      "R AM",
      "R oom",
      "S h",
      "S we",
      "S ir",
      "S pea",
      "W il",
      "W atch",
      "Y OU",
      "_ K",
      "a the",
      "a le",
      "b la",
      "b right",
      "c c",
      "c er",
      "c al",
      "c la",
      "c ary",
      "d ou",
      "d ar",
      "d ate",
      "d oom",
      "f l",
      "f ie",
      "f etch",
      "g n",
      "g u",
      "h ang",
      "i de",
      "i ly",
      "i ck",
      "l f",
      "l ark",
      "l unte",
      "m erc",
      "m atch",
      "m atter",
      "n u",
      "n ay",
      "n ers",
      "p h",
      "p il",
      "p hy",
      "r age",
      "s le",
      "s low",
      "s lay",
      "s hip",
      "t une",
      "u al",
      "v ir",
      "v ow",
      "w al",
      "w oo",
      "y alt",
      "th r",
      "th ree",
      "th umb",
      "er ing",
      "the cary",
      "ar ri",
      "en vious",
      "st ain",
      "st reet",
      "se ll",
      "se arch",
      "he s",
      "wi ld",
      "no ise",
      "it self",
      "it ies",
      "it iz",
      "be at",
      "ha ving",
      "ha lf",
      "ut e",
      "ch ance",
      "de ep",
      "gh s",
      "her self",
      "with al",
      "as ar",
      "al ready",
      "ag g",
      "am b",
      "do g",
      "do or",
      "ho p",
      "ho ar",
      "sp ect",
      "us ing",
      "The se",
      "ant s",
      "ra h",
      "su m",
      "con j",
      "con sent",
      "if f",
      "dis play",
      "go t",
      "ta le",
      "pro ve",
      "too k",
      "pre pare",
      "was h",
      "ex ile",
      "per form",
      "per mission",
      "Montag ues",
      "vo ice",
      "vo lunte",
      "ci ous",
      "bre ast",
      "che d",
      "ene my",
      "comp li",
      "comp any",
      "spea ks",
      "str eng",
      "gra ce",
      "head s",
      "distribut e",
      "ser vant",
      "maid en",
      "coun t",
      "fo e",
      "tain ing",
      "beg in",
      "flow ers",
      "pa id",
      "ple asure",
      "ud ge",
      "bro ther",
      "nat ure",
      "wind ow",
      "chee k",
      "chee ks",
      "Servant s",
      "honour able",
      "yon der",
      "temp er",
      "AB RAM",
      "pow er",
      "banish ment",
      "bit ter",
      "four teen",
      "hur t",
      "spo ke",
      "protect ed",
      "gir l",
      "satis fied",
      "exc use",
      "Balth asar",
      "Wil t",
      "nu mber",
      "sle w",
      "itiz ens",
      "streng th",
      ", ’",
      "A d",
      "A m",
      "C h",
      "C ould",
      "C up",
      "E D",
      "E re",
      "F a",
      "G et",
      "G entle",
      "H N",
      "H a",
      "H el",
      "I T",
      "J O",
      "J o",
      "M is",
      "M usic",
      "M ost",
      "N O",
      "O ur",
      "S aint",
      "T I",
      "T wo",
      "T ell",
      "Y oun",
      "_ They",
      "_ Within",
      "a z",
      "a de",
      "a ce",
      "b row",
      "b low",
      "b lu",
      "c ha",
      "c ro",
      "c ra",
      "c row",
      "c arri",
      "d ow",
      "d are",
      "d ance",
      "f ive",
      "f ray",
      "g uest",
      "h n",
      "h are",
      "j e",
      "k er",
      "k nock",
      "l ine",
      "m ask",
      "n er",
      "n es",
      "n ine",
      "o cc",
      "p ap",
      "p ite",
      "r en",
      "s wi",
      "s ense",
      "t ree",
      "v ie",
      "w h",
      "w n",
      "w on",
      "w ake",
      "w ings",
      "w ench",
      "th us",
      "ou l",
      "an c",
      "en ded",
      "en eral",
      "at tend",
      "on d",
      "ll ing",
      "st at",
      "st ance",
      "st op",
      "to ward",
      "to wn",
      "se ver",
      "re p",
      "re move",
      "re quire",
      "he ll",
      "he ir",
      "le ad",
      "ha ir",
      "ch o",
      "de v",
      "de w",
      "de light",
      "de sc",
      "de fect",
      "li mb",
      "li ving",
      "ce s",
      "ce ase",
      "for ce",
      "lo v",
      "gh ost",
      "as leep",
      "al most",
      "ed s",
      "ed ition",
      "ent ly",
      "we ar",
      "we ak",
      "all y",
      "un time",
      "Th us",
      "fe es",
      "id d",
      "ho pe",
      "sha pe",
      "aw hile",
      "te ar",
      "te st",
      "sp ir",
      "your self",
      "ra se",
      "la id",
      "su re",
      "con t",
      "if y",
      "if ul",
      "mo on",
      "ound s",
      "ea se",
      "ul ar",
      "po int",
      "po sse",
      "any one",
      "any thing",
      "qu oth",
      "tr ust",
      "si ghs",
      "ex p",
      "know n",
      "ble ssed",
      "vi ol",
      "St and",
      "In formation",
      "did st",
      "who m",
      "ci vil",
      "lu ck",
      "bre ak",
      "sc orn",
      "ak ing",
      "br aw",
      "Un less",
      "house s",
      "tre m",
      "str ange",
      "An on",
      "af fect",
      "long er",
      "chi de",
      "coun try",
      "had st",
      "joy ful",
      "beg g",
      "letter s",
      "cour se",
      "ust om",
      "hold er",
      "don ate",
      "dream s",
      "bri ef",
      "follow ing",
      "music ians",
      "sm all",
      "sm ile",
      "sword s",
      "pl ag",
      "ru de",
      "rece ived",
      "lad ies",
      "wed ding",
      "bu ri",
      "kn ave",
      "adv ent",
      "Po or",
      "Up on",
      "bir d",
      "dam n",
      "medi um",
      "spe ed",
      "De ath",
      "fing ers",
      "lament able",
      "sla ught",
      "shri ft",
      "pret ty",
      "Al as",
      "Su ch",
      "bl ind",
      "simp le",
      "quick ly",
      "Li ke",
      "Swe et",
      "Spea k",
      "ph rase",
      "pil gri",
      "volunte ers",
      "Cup id",
      "JO HN",
      "Jo hn",
      "pap er",
      "untime ly",
      ") ,",
      ". ’",
      "0 0",
      "? ’",
      "A way",
      "B ER",
      "B oth",
      "C AR",
      "C ame",
      "C om",
      "C itizens",
      "D es",
      "E S",
      "E ither",
      "F OR",
      "F ran",
      "G UT",
      "H o",
      "H ad",
      "H ast",
      "J ECT",
      "M ake",
      "N e",
      "O THE",
      "P ea",
      "P AGE",
      "R ANT",
      "S ince",
      "S ign",
      "T ut",
      "W ould",
      "W AR",
      "W ere",
      "Y ea",
      "_ Ret",
      "a u",
      "b ad",
      "b ur",
      "b are",
      "b aw",
      "b ra",
      "b ig",
      "b ury",
      "c is",
      "c ir",
      "c am",
      "c up",
      "c urse",
      "c ity",
      "c ret",
      "d in",
      "d well",
      "d ry",
      "d ies",
      "e k",
      "e ld",
      "f at",
      "f al",
      "f ur",
      "f ly",
      "f ain",
      "f ine",
      "f aint",
      "f ought",
      "f oul",
      "g i",
      "g ing",
      "g ain",
      "g ave",
      "g lad",
      "h ard",
      "h und",
      "i or",
      "i me",
      "i gh",
      "l ent",
      "l amb",
      "m at",
      "m as",
      "m one",
      "m ouse",
      "n on",
      "p an",
      "p ing",
      "p ain",
      "p ra",
      "p ul",
      "p ie",
      "q uest",
      "s l",
      "s w",
      "s me",
      "s our",
      "s id",
      "s ave",
      "s ake",
      "s aint",
      "s oft",
      "t ou",
      "t le",
      "t ed",
      "t ort",
      "u c",
      "u gh",
      "v ent",
      "v ain",
      "v id",
      "v ance",
      "w is",
      "’ .",
      "th in",
      "th ither",
      "er able",
      "in f",
      "is ed",
      "is ses",
      "at ive",
      "at ure",
      "on line",
      "ll s",
      "ll en",
      "me th",
      "st or",
      "st ar",
      "st art",
      "st ates",
      "st rew",
      "se cret",
      "re at",
      "re ver",
      "re place",
      "re med",
      "re main",
      "re spect",
      "he el",
      "le g",
      "le ft",
      "ve ins",
      "no on",
      "it ation",
      "be ast",
      "be low",
      "ut s",
      "ch er",
      "ch ang",
      "ch oose",
      "ro se",
      "ro yalt",
      "de ce",
      "de part",
      "ce d",
      "for d",
      "for sworn",
      "lo d",
      "lo g",
      "lo ss",
      "her s",
      "as h",
      "ri es",
      "ad o",
      "not e",
      "al ous",
      "al ong",
      "al ack",
      "hat eful",
      "we l",
      "we st",
      "we ap",
      "we ary",
      "we bs",
      "we lcome",
      "ir on",
      "ag es",
      "all ow",
      "ke st",
      "ct ion",
      "so l",
      "so ld",
      "so lic",
      "un k",
      "un less",
      "un cle",
      "wor m",
      "am ong",
      "do m",
      "do ve",
      "EN BER",
      "fe it",
      "ck le",
      "id ual",
      "ver n",
      "co z",
      "co ck",
      "ap pro",
      "fa ult",
      "sh r",
      "sh ar",
      "sp ite",
      "AP OTHE",
      "ss ing",
      "ic ial",
      "con tr",
      "con du",
      "con sort",
      "con stant",
      "day light",
      "ab ro",
      "if ied",
      "dis t",
      "dis cover",
      "dis cla",
      "od d",
      "ea st",
      "ate ly",
      "ind iv",
      "go ss",
      "il ity",
      "po thecary",
      "ta ct",
      "For tune",
      "pro of",
      "pro vid",
      "wo mb",
      "see k",
      "see ming",
      "ven ge",
      "some thing",
      "pre cious",
      "pre vent",
      "bo ld",
      "We lcome",
      "si re",
      "si gn",
      "AN D",
      "AN Y",
      "light ning",
      "part s",
      "pr of",
      "pr oud",
      "where fore",
      "ac cept",
      "gentle woman",
      "op le",
      "op press",
      "copy ing",
      "che er",
      "che ck",
      "sc ar",
      "ak es",
      "comp ut",
      "OR US",
      "dr ink",
      "name s",
      "wr ong",
      "form at",
      "ang u",
      "str ong",
      "lie ve",
      "di v",
      "di re",
      "af ford",
      "He art",
      "gre y",
      "gre en",
      "keep s",
      "distribut ed",
      "qui et",
      "Sha kes",
      "Who se",
      "pe are",
      "pe ople",
      "sa il",
      "way s",
      "com ing",
      "sou ght",
      "sent ence",
      "int ed",
      "int ents",
      "friend s",
      "Ar t",
      "cour t",
      "sse s",
      "fect ion",
      "need s",
      "kins men",
      "ple ase",
      "va li",
      "war m",
      "weep s",
      "tend ants",
      "CH ORUS",
      "um our",
      "orn ament",
      "ste el",
      "app ear",
      "bro ad",
      "gro om",
      "min ute",
      "pur pose",
      "emp ty",
      "free ly",
      "rece i",
      "writ ing",
      "sup port",
      "wise ly",
      "yon d",
      "provi ded",
      "tru th",
      "At tendants",
      "kn ife",
      "prom o",
      "sad ness",
      "bride groom",
      "bir th",
      "ire s",
      "imp ort",
      "wak ing",
      "nock ing",
      "gold en",
      "** *",
      "want on",
      "post ed",
      "PRO JECT",
      "bus iness",
      "pal m",
      "pati ence",
      "wret ched",
      "add ition",
      "sole mn",
      "coll ection",
      "pos ition",
      "acc ustom",
      "_K nocking",
      "dou bt",
      "dar es",
      "merc y",
      "vir t",
      "wal k",
      "thr ust",
      "street s",
      "conj ure",
      "display ing",
      "perform ing",
      "compli ance",
      "Ch urch",
      "Fa ith",
      "Music ians",
      "Youn g",
      "blu sh",
      "je alous",
      "pite ous",
      "swi ft",
      "vie w",
      "stat us",
      "require ments",
      "ghost ly",
      "edition s",
      "spir it",
      "posse ss",
      "buri ed",
      "advent ure",
      "damn ed",
      "slaught er",
      "CAR Y",
      "Fran cis",
      "GUT ENBER",
      "Pea ce",
      "Sign ior",
      "WAR RANT",
      "baw d",
      "fat al",
      "fur ther",
      "hund red",
      "mone y",
      "tou ch",
      "tort ure",
      "wis dom",
      "weap on",
      "webs ite",
      "appro ach",
      "APOTHE CARY",
      "indiv idual",
      "provid ing",
      "Shakes peare",
      "GUTENBER G",
      "! ’",
      "1 5",
      "A re",
      "A side",
      "A pothecary",
      "B l",
      "B ea",
      "B UT",
      "C O",
      "C o",
      "D i",
      "D IS",
      "D AM",
      "E l",
      "E ven",
      "F ind",
      "F ie",
      "F ull",
      "G all",
      "G reg",
      "G eneral",
      "H ang",
      "H ark",
      "I LI",
      "I ES",
      "J es",
      "J ack",
      "L am",
      "M ab",
      "M any",
      "M ask",
      "M IT",
      "N D",
      "N ight",
      "P G",
      "P ut",
      "P art",
      "P lay",
      "R ight",
      "S ay",
      "S us",
      "T r",
      "V I",
      "W i",
      "W o",
      "W ed",
      "W ife",
      "Z EN",
      "_ Draw",
      "_ Aside",
      "a lo",
      "a ther",
      "a ks",
      "b our",
      "b ark",
      "b ud",
      "b orn",
      "b orrow",
      "b rows",
      "c atch",
      "c arry",
      "c limb",
      "d ro",
      "d al",
      "d ers",
      "d ated",
      "d iff",
      "d anc",
      "e ous",
      "e qui",
      "f ut",
      "f am",
      "f ood",
      "f right",
      "f lies",
      "f ury",
      "f rown",
      "f ond",
      "g le",
      "g es",
      "g row",
      "g ment",
      "g az",
      "h ar",
      "h end",
      "h ind",
      "h umour",
      "i p",
      "i am",
      "j u",
      "j our",
      "k ne",
      "k new",
      "k isses",
      "l an",
      "l en",
      "l inks",
      "l ends",
      "m i",
      "m and",
      "m ood",
      "m itt",
      "n y",
      "o te",
      "p in",
      "p or",
      "p he",
      "p es",
      "p hi",
      "p ment",
      "p ure",
      "p age",
      "p ack",
      "r or",
      "r at",
      "r ul",
      "r ouse",
      "r atch",
      "s k",
      "s y",
      "s hi",
      "s ur",
      "s ho",
      "s ic",
      "s mo",
      "t en",
      "t ro",
      "t id",
      "t was",
      "u ck",
      "u sh",
      "u mp",
      "u ous",
      "u ff",
      "v an",
      "v al",
      "v our",
      "v ish",
      "w at",
      "w ood",
      "w ound",
      "w ink",
      "w agg",
      "y ear",
      "’ ?",
      "th ri",
      "th ir",
      "er ent",
      "er ous",
      "ou ble",
      "in ing",
      "in formation",
      "in constant",
      "an on",
      "an ing",
      "or ch",
      "ar i",
      "ar ray",
      "en counter",
      "on oun",
      "me s",
      "me at",
      "me ant",
      "me ss",
      "st re",
      "st al",
      "st one",
      "st rel",
      "st um",
      "to p",
      "to ad",
      "to ld",
      "to ck",
      "to day",
      "to il",
      "and er",
      "se qu",
      "se mb",
      "re f",
      "re port",
      "he ard",
      "he alth",
      "le st",
      "le ap",
      "ve x",
      "wi de",
      "of fi",
      "ing ale",
      "it ch",
      "be y",
      "be ll",
      "be long",
      "be ats",
      "be lieve",
      "ut ter",
      "de f",
      "de p",
      "de li",
      "de al",
      "de ter",
      "de mn",
      "de vil",
      "li p",
      "li ck",
      "li ber",
      "li ken",
      "nd er",
      "for ty",
      "for ts",
      "for ward",
      "lo t",
      "lo st",
      "lo so",
      "lo ver",
      "lo ath",
      "lo gs",
      "lo cks",
      "with draw",
      "as ion",
      "as ide",
      "ri ef",
      "ad ing",
      "ad ie",
      "not ice",
      "es y",
      "al s",
      "al as",
      "et y",
      "ed ing",
      "thou t",
      "ent ity",
      "ent io",
      "hi d",
      "hi re",
      "we en",
      "ur b",
      "ur g",
      "ur ing",
      "ur al",
      "ow ard",
      "ag re",
      "ag ate",
      "oo th",
      "ter m",
      "ter n",
      "un g",
      "un luck",
      "un accustom",
      "wor th",
      "wor se",
      "wor thy",
      "wor ship",
      "Th ree",
      "Th ings",
      "am ine",
      "ain ts",
      "one st",
      "ck ing",
      "id ent",
      "ho llow",
      "love s",
      "ap e",
      "ap o",
      "ap t",
      "ap pre",
      "fa i",
      "fa il",
      "ne phe",
      "sh ut",
      "sh are",
      "te ous",
      "te ach",
      "ma il",
      "sp ent",
      "sp ic",
      "us er",
      "us ion",
      "mor n",
      "your s",
      "ue l",
      "ra ther",
      "ra ven",
      "ra ise",
      "ic ular",
      "la ugh",
      "su it",
      "con ce",
      "con sid",
      "con tact",
      "ab ility",
      "mo der",
      "mo dest",
      "dis cords",
      "night ingale",
      "ea ch",
      "Ju le",
      "go ing",
      "go es",
      "go vern",
      "mar y",
      "ta il",
      "ta ste",
      "any where",
      "pro per",
      "pro du",
      "pro vis",
      "tr ans",
      "tr ouble",
      "wo men",
      "see m",
      "see ing",
      "may st",
      "sir rah",
      "use d",
      "would st",
      "pre s",
      "oun ded",
      "than ks",
      "dead ly",
      "hy me",
      "ex change",
      "know s",
      "own er",
      "ef forts",
      "Thou gh",
      "part icular",
      "ble st",
      "ble ss",
      "vi ce",
      "pr ison",
      "tri ump",
      "who le",
      "Do st",
      "ac cord",
      "op port",
      "sweet est",
      "TH IS",
      "ci al",
      "der iv",
      "jo int",
      "Be cause",
      "fi end",
      "fi ckle",
      "lu st",
      "heart s",
      "che s",
      "sc ratch",
      "br ain",
      "back ward",
      "dr unk",
      "Un to",
      "heaven s",
      "look ing",
      "str uck",
      "AG RE",
      "RE A",
      "dre ss",
      "gre et",
      "stand s",
      "ser ving",
      "gri e",
      "tain s",
      "lic able",
      "gr ant",
      "full y",
      "child ren",
      "cour teous",
      "den y",
      "pray er",
      "fall s",
      "off er",
      "off icial",
      "need y",
      "dream t",
      "CI TI",
      "bri dal",
      "du g",
      "du mp",
      "ple as",
      "faith ful",
      "mon th",
      "rap ier",
      "beaut ies",
      "weep ing",
      "USI N",
      "clo s",
      "clo ck",
      "im medi",
      "im mortal",
      "pri v",
      "bet ween",
      "app licable",
      "quar re",
      "Will iam",
      "ran k",
      "grief s",
      "air y",
      "cre ating",
      "cre ature",
      "min strel",
      "pur g",
      "wall s",
      "inclu ded",
      "oft en",
      "murder er",
      "paragraph s",
      "LI MIT",
      "emp lo",
      "nat ural",
      "pl ant",
      "turn s",
      "vis or",
      "vis it",
      "kind red",
      "pay ing",
      "pay ments",
      "sup per",
      "thought s",
      "last ing",
      "prote st",
      "tru ly",
      "bu y",
      "hone y",
      "besee ming",
      "temp t",
      "sub ject",
      "sub stance",
      "IN D",
      "hor ses",
      "ob tain",
      "pow der",
      "wak es",
      "youth ful",
      "fellow s",
      "thank ful",
      "join ts",
      "comply ing",
      "after noon",
      "cri es",
      "fing er",
      "gall ant",
      "sla ve",
      "wa x",
      "wast e",
      "confess ion",
      "cr uel",
      "pati ent",
      "wret ch",
      "stri ke",
      "stri fe",
      "lim itation",
      "present ly",
      "Sh ould",
      "Sir rah",
      "athe d",
      "cer tain",
      "cal m",
      "fie ld",
      "gu il",
      "phy sic",
      "sum mer",
      "Gentle men",
      "Hel p",
      "blow s",
      "cro ss",
      "cra ves",
      "guest s",
      "nes day",
      "occ asion",
      "wh ite",
      "won der",
      "dev ise",
      "defect ive",
      "cont in",
      "exp ense",
      "trem ble",
      "affect ions",
      "begg ar",
      "plag ue",
      "pilgri m",
      "Com mend",
      "_Ret ires",
      "bur den",
      "cir c",
      "curse d",
      "din ner",
      "fal se",
      "mat tock",
      "sl ander",
      "vance s",
      "replace ment",
      "remed y",
      "rose mary",
      "royalt ies",
      "shr oud",
      "contr ary",
      "condu ct",
      "abro ad",
      "dist urb",
      "oppress ion",
      "court esy",
      "recei pt",
      "solemn ity",
      "virt uous",
      "Bea ut",
      "CO USIN",
      "DAM AGE",
      "El se",
      "Greg ory",
      "ILI TY",
      "Jes u",
      "Lam mas",
      "Mask ers",
      "Sus an",
      "Wi thout",
      "Wo men",
      "Wed nesday",
      "alo of",
      "diff erent",
      "equi pment",
      "fut ure",
      "gaz e",
      "kne es",
      "mitt ed",
      "phi loso",
      "tid ings",
      "val our",
      "wagg on",
      "onoun ce",
      "offi ce",
      "deter mine",
      "liber ty",
      "liken ess",
      "loath some",
      "adie u",
      "appre hend",
      "nephe w",
      "modest y",
      "triump h",
      "opport un",
      "deriv ative",
      "AGRE E",
      "CITI ZEN",
      "LIMIT ED",
      "philoso phy",
      "- -",
      "0 1",
      "1 1",
      "2 0",
      "2 2",
      "9 0",
      "A b",
      "A f",
      "A men",
      "A SC",
      "A gain",
      "B E",
      "B O",
      "B an",
      "B ro",
      "B es",
      "B id",
      "B ear",
      "B REA",
      "C he",
      "C EN",
      "C hor",
      "D on",
      "D ry",
      "D own",
      "D ies",
      "E M",
      "E X",
      "E n",
      "E ve",
      "E ver",
      "E BO",
      "F r",
      "F UL",
      "F all",
      "F ear",
      "G UE",
      "G rief",
      "H ear",
      "H ea",
      "H app",
      "H onest",
      "I m",
      "I nter",
      "K ing",
      "L E",
      "L O",
      "L e",
      "L o",
      "L ay",
      "L ive",
      "L ies",
      "L est",
      "M u",
      "M en",
      "M ine",
      "M ust",
      "M iss",
      "N T",
      "O K",
      "O SE",
      "P er",
      "P ri",
      "P lain",
      "P lace",
      "P ardon",
      "R ed",
      "S S",
      "S a",
      "S up",
      "S end",
      "S ear",
      "S tr",
      "S how",
      "S leep",
      "S oft",
      "S top",
      "T O",
      "T R",
      "T er",
      "T it",
      "T RI",
      "T ick",
      "T aking",
      "T ush",
      "T oward",
      "U se",
      "U ND",
      "U nder",
      "V an",
      "V en",
      "V al",
      "V illain",
      "W I",
      "W hile",
      "W hither",
      "Y es",
      "Z ounds",
      "_ S",
      "_ Th",
      "_ He",
      "_ Ad",
      "_ Dies",
      "_ Fall",
      "_ Lay",
      "a e",
      "a h",
      "a qu",
      "a fore",
      "a like",
      "a bed",
      "a va",
      "b a",
      "b one",
      "b ber",
      "b ask",
      "b ore",
      "b ase",
      "b ier",
      "b agg",
      "b ade",
      "c at",
      "c and",
      "c ing",
      "c un",
      "c ul",
      "c ast",
      "c ave",
      "c ook",
      "c orn",
      "c ats",
      "c lear",
      "c itizens",
      "c ified",
      "d y",
      "d le",
      "d oo",
      "d un",
      "d ue",
      "d ity",
      "d anger",
      "d ash",
      "e g",
      "e m",
      "e as",
      "f an",
      "f is",
      "f re",
      "f it",
      "f ro",
      "f li",
      "f ed",
      "f ic",
      "f ish",
      "f urn",
      "f led",
      "f ru",
      "f its",
      "g l",
      "g y",
      "g en",
      "g ent",
      "g ue",
      "g ear",
      "g led",
      "g rows",
      "g rown",
      "g eneral",
      "h u",
      "h unt",
      "h rew",
      "h ung",
      "i ent",
      "i la",
      "i ble",
      "i mer",
      "j a",
      "j ur",
      "j ust",
      "j ud",
      "k no",
      "k night",
      "l ar",
      "l end",
      "l ers",
      "l ink",
      "l angu",
      "m ou",
      "m ut",
      "m al",
      "m our",
      "m art",
      "m ies",
      "m ity",
      "n al",
      "n et",
      "n urse",
      "n ie",
      "n aught",
      "n ice",
      "n urs",
      "n im",
      "o bed",
      "p ed",
      "p un",
      "p ath",
      "p ear",
      "p ity",
      "p est",
      "p lain",
      "p aint",
      "p ains",
      "p luck",
      "r t",
      "r ag",
      "r up",
      "r us",
      "r ate",
      "r ind",
      "r ance",
      "r ite",
      "r hyme",
      "s or",
      "s ch",
      "s now",
      "s alt",
      "s ie",
      "s ong",
      "s ink",
      "s ac",
      "s ings",
      "s kill",
      "s wer",
      "s its",
      "s ister",
      "s hop",
      "s lip",
      "s aints",
      "t to",
      "t ut",
      "t ent",
      "t row",
      "t able",
      "t pan",
      "t wel",
      "u il",
      "u gs",
      "v it",
      "v ive",
      "v iness",
      "v ari",
      "w ent",
      "w are",
      "w his",
      "w hip",
      "w ounded",
      "z e",
      "z y",
      "z en",
      "z el",
      "’ —",
      "th i",
      "th read",
      "th rown",
      "th reat",
      "er ce",
      "er ence",
      "er ations",
      "in v",
      "in y",
      "in tell",
      "in str",
      "in ently",
      "in fection",
      "an ation",
      "the st",
      "is ure",
      "is ans",
      "is tribut",
      "or o",
      "or ous",
      "or ig",
      "ar g",
      "ar row",
      "ar ise",
      "en ger",
      "en quire",
      "en force",
      "en mity",
      "at a",
      "at or",
      "at ta",
      "on y",
      "on ing",
      "ll ist",
      "me ats",
      "st o",
      "st out",
      "st ab",
      "st ep",
      "st ret",
      "st ore",
      "st iv",
      "st ol",
      "st ones",
      "st ory",
      "st iff",
      "st inted",
[...]
